node {
  name: "global_step/Initializer/zeros"
  op: "Const"
  attr {
    key: "_class"
    value {
      list {
        s: "loc:@global_step"
      }
    }
  }
  attr {
    key: "_output_shapes"
    value {
      list {
        shape {
        }
      }
    }
  }
  attr {
    key: "dtype"
    value {
      type: DT_INT64
    }
  }
  attr {
    key: "value"
    value {
      tensor {
        dtype: DT_INT64
        tensor_shape {
        }
        int64_val: 0
      }
    }
  }
}
node {
  name: "global_step"
  op: "VarHandleOp"
  attr {
    key: "_class"
    value {
      list {
        s: "loc:@global_step"
      }
    }
  }
  attr {
    key: "_output_shapes"
    value {
      list {
        shape {
        }
      }
    }
  }
  attr {
    key: "container"
    value {
      s: ""
    }
  }
  attr {
    key: "dtype"
    value {
      type: DT_INT64
    }
  }
  attr {
    key: "shape"
    value {
      shape {
      }
    }
  }
  attr {
    key: "shared_name"
    value {
      s: "global_step"
    }
  }
}
node {
  name: "global_step/IsInitialized/VarIsInitializedOp"
  op: "VarIsInitializedOp"
  input: "global_step"
  attr {
    key: "_output_shapes"
    value {
      list {
        shape {
        }
      }
    }
  }
}
node {
  name: "global_step/Assign"
  op: "AssignVariableOp"
  input: "global_step"
  input: "global_step/Initializer/zeros"
  attr {
    key: "dtype"
    value {
      type: DT_INT64
    }
  }
}
node {
  name: "global_step/Read/ReadVariableOp"
  op: "ReadVariableOp"
  input: "global_step"
  attr {
    key: "_output_shapes"
    value {
      list {
        shape {
        }
      }
    }
  }
  attr {
    key: "dtype"
    value {
      type: DT_INT64
    }
  }
}
node {
  name: "global_step/VarIsInitializedOp"
  op: "VarIsInitializedOp"
  input: "global_step"
  attr {
    key: "_output_shapes"
    value {
      list {
        shape {
        }
      }
    }
  }
}
node {
  name: "global_step/cond"
  op: "If"
  input: "global_step/VarIsInitializedOp"
  input: "global_step"
  input: "global_step/Initializer/zeros"
  attr {
    key: "Tcond"
    value {
      type: DT_BOOL
    }
  }
  attr {
    key: "Tin"
    value {
      list {
        type: DT_RESOURCE
        type: DT_INT64
      }
    }
  }
  attr {
    key: "Tout"
    value {
      list {
        type: DT_INT64
      }
    }
  }
  attr {
    key: "_lower_using_switch_merge"
    value {
      b: true
    }
  }
  attr {
    key: "_output_shapes"
    value {
      list {
        shape {
        }
      }
    }
  }
  attr {
    key: "else_branch"
    value {
      func {
        name: "global_step_cond_false_20"
      }
    }
  }
  attr {
    key: "output_shapes"
    value {
      list {
        shape {
        }
      }
    }
  }
  attr {
    key: "then_branch"
    value {
      func {
        name: "global_step_cond_true_19"
      }
    }
  }
}
node {
  name: "global_step/cond/Identity"
  op: "Identity"
  input: "global_step/cond"
  attr {
    key: "T"
    value {
      type: DT_INT64
    }
  }
  attr {
    key: "_output_shapes"
    value {
      list {
        shape {
        }
      }
    }
  }
}
node {
  name: "global_step/add/y"
  op: "Const"
  attr {
    key: "_output_shapes"
    value {
      list {
        shape {
        }
      }
    }
  }
  attr {
    key: "dtype"
    value {
      type: DT_INT64
    }
  }
  attr {
    key: "value"
    value {
      tensor {
        dtype: DT_INT64
        tensor_shape {
        }
        int64_val: 0
      }
    }
  }
}
node {
  name: "global_step/add"
  op: "AddV2"
  input: "global_step/cond/Identity"
  input: "global_step/add/y"
  attr {
    key: "T"
    value {
      type: DT_INT64
    }
  }
  attr {
    key: "_output_shapes"
    value {
      list {
        shape {
        }
      }
    }
  }
}
node {
  name: "normalize_element/component_0"
  op: "Const"
  device: "/device:CPU:0"
  attr {
    key: "_output_shapes"
    value {
      list {
        shape {
          dim {
            size: 1155
          }
          dim {
            size: 11
          }
        }
      }
    }
  }
  attr {
    key: "dtype"
    value {
      type: DT_DOUBLE
    }
  }
  attr {
    key: "value"
    value {
      tensor {
        dtype: DT_DOUBLE
        tensor_shape {
          dim {
            size: 1155
          }
          dim {
            size: 11
          }
        }
        tensor_content: "h\362e\203&_\346?\241T\230x?r\312?\232\231\231\231\231\231\341?\2008\340\361\207\003\276?\003\375\320A\nX\276?H\264\302\346@\242\325?\372{m\304\272\364\330?\245\272\220\347\330\'\346?(\225J\245R\251\324?\370rC\014H\307\322?\001\000\000\000\000\000\323?\177H\340\355\207\004\336?\353\331!pc\031\324?\000\000\000\000\000\000\340?\342\200\307\037\016x\354?\037\241Q\'\374\236\324?\334\245\236\214\337.\345?2\177\257\215X\227\336?\275\202\235\225\"\004\355?L\245R\251T*\325?\260\253\360\345\206\030\320?\020\000\000\000\000\000\250?\346:Fq\256c\324?\375\221\323|\255\236\315?)\\\217\302\365(\334?\316[\014\351\274\305\300?\343\302\210@?t\300?\347@\242\0256\007\302?*Z8\003B\311\315?\023\013\253\021\351t\341?\371|>\237\317\347\343?@:\2262\tv\305?\000\000\000\000\000\000\324?\351\251\205\225\236Z\350?j\276V\317\016\201\313?\232\231\231\231\231\231\341?\017x\374\341\200\307\277?\302$f\3278}\275?\013\233\003\211V\330\254?\241\344N\321\302\031\260?KA\002jv\275\350?\010\006\203\301`0\310?\261\253\360\345\206\030\300?\002\000\000\000\000\000\302?[X\351\251\205\225\316?~\255\236\035\0027\306?\024\256G\341z\024\336?\265\372RA\253/\265?@t\220\002\226\307\273?\013\233\003\211V\330\254?\241\344N\321\302\031\240?\347\321\202\004\324\354\332?p\267\333\355v\273\335?]\234\326l\237\250\276?\002\000\000\000\000\000\322?\2448\3271\212s\315?\231x?r\232\257\325?\354Q\270\036\205\353\301?\265\372RA\253/\265?\232\366\331\316D9\266?\251\'\343\267K=\311?\271S\264p\006\204\302?\207\027\300\231\217\262\315?\261\327\353\365z\275\336?@:\2262\tv\305?\377\377\377\377\377\377\341?\021x\373!\201\267\337?G\027]t\321E\267?\256G\341z\024\256\327?D:o1\244\363\266?\266\001d\332g;\263?\371\355RO\306o\307?\362V\3669\244&\310?Z\254F\244\323\205\334?+\026\213\305b\261\330?I\260\253\360\345\206\270?\004\000\000\000\000\000\300?\353\030\305\271\216Q\314?G\027]t\321E\307?\354Q\270\036\205\353\321?&\2736Q\262k\263?\341\220\233\214\241\352\275?Zas \321\n\333?\372{m\304\272\364\330?\251\317\030\216\026$\340?z<\036\217\307\343\341?D\365\240\221w\376\266?\002\000\000\000\000\000\302?\235\353\030\305\271\216\321?\241T\230x?r\332?{\024\256G\341z\244?\231\231\231\231\231\231\311?$i\006\367r\305\276?H\264\302\346@\242\325?:\244&\030oe\317?\206\030\'\330Y)\342?\215\307\343\361x<\336?]\234\326l\237\250\276?\000\000\000\000\000\000\304?\024x\373!\201\267\317?4(\025&\336\217\334?\000\000\000\000\000\000\000\000\016x\374\341\200\307\257?\377\233%\230\304\354\272?H\264\302\346@\242\305?\022\353\322c\376^\313?\206\030\'\330Y)\342?\331l6\233\315f\343?\266f\373D\365\240\301?\002\000\000\000\000\000\302?\352\251\205\225\236Z\330?\"pc\031\224\n\323?\366(\\\217\302\365\340?)\331\265\211\222]\313?\246K\311\177\263\004\303?\013\233\003\211V\330\234?\002\241\344N\321\302\231?\247p\264 \0015\333?\353\365z\275^\257\327?;\177\213\323\232\355\303?\377\377\377\377\377\377\341?\346:Fq\256c\324?\363\265zv\010\334\330?\000\000\000\000\000\000\000\000\361\370\303\001\217?\274?$\233\363\252\020O\301?6\007\022\255\2609\320?\321\302\031\020J\356\324?\262\204\007\014\340\314\347?\312d2\231L&\343?J\260\253\360\345\206\310?\004\000\000\000\000\000\300?Vzja\245\247\306?r\232\257\325\263C\340?{\024\256G\341z\224?GX\356i\204\345\336?\373:z\356~\201\307?O\306o\227z2\356?m\304\272\364\230\277\347?5\013\022P\263\353\345?\233L&\223\311d\342?]\234\326l\237\250\276?\002\000\000\000\000\000\314?\017\232|\331\240\311\327?\274\0379\315\327\352\331?R\270\036\205\353Q\310?)\331\265\211\222]\313?4Q\216\005\305\205\301?\202D+l\016$\332?~\016\251\t\306[\331?\374_\231(tS\342?\016\006\203\301`0\330?Nk\266OT\017\272?\000\000\000\000\000\000\316?\2448\3271\212s\335?\353\331!pc\031\324?\303\365(\\\217\302\325?\322y\213!\235\267\270?4Q\216\005\305\205\301?6\007\022\255\2609\300?:\244&\030oe\317?\177q\202\235\225\"\344?O&\223\311d2\331?\276\334\020\003\322\261\304?\374\377\377\377\377\377\307?\240\311\227\r\232|\331?\"pc\031\224\n\263?\256G\341z\024\256\327?\323y\213!\235\267\250?\374:z\356~\201\267?\347@\242\0256\007\262?\002\241\344N\321\302\231?5\226\360\200\001\234\331?+\026\213\305b\261\330?\271!\006\244c)\303?\377\377\377\377\377\377\331?0\0334\371\262A\303?4(\025&\336\217\314?{\024\256G\341z\264?\357\370\303\001\217?\254?\333\316D9\026\024\267?\013\233\003\211V\330\234?\341\014\010%w\212\266?\"X\215H\247\013\331?\215\307\343\361x<\336?\271!\006\244c)\303?\002\000\000\000\000\000\302?\346:Fq\256c\324?\330\352\331!pc\331?\303\365(\\\217\302\305?\322y\213!\235\267\270?\237W\205x\212\244\271?\347@\242\0256\007\302?\216X\227\036\363\367\332?g\251u\357KF\335?\315\345r\271\\.\327?7\304\200t,e\262?\004\000\000\000\000\000\300?\017\232|\331\240\311\327?\217eP*L\274\277?\366(\\\217\302\365\330?&\2736Q\262k\263?\226\225.%\377\315\302?\016$Zas \321?\251\t\306[\331\347\300?t\367\276d\324S\331?(\225J\245R\251\324?R&\301\256\302\227\313?\376\377\377\377\377\377\332?\352\251\205\225\236Z\330?\274\0379\315\327\352\331?\\\217\302\365(\\\337?&\2736Q\262k\263?0\276\365\247\341\220\333?\227z2~\273\324\323?\321\302\031\020J\356\344?V\375.Kx\300\340?\312d2\231L&\323?\017\032y\347oq\332?\004\000\000\000\000\000\300?5\371\262A\223/\313?\006\245\302\304\373\221\323?\\\217\302\365(\\\337?\317\352K\005\255\276\324?\027F\004\372\241\203\264? \321\n\233\003\211\326?\247h\341\014\010%\347?\243[,z\3038\341?\215\307\343\361x<\336?rZ\263}\242z\320?\000\000\000\000\000\000\324?\351:Fq\256c\304?=;\004n,\203\322?\232\231\231\231\231\231\331?a\271\247\021\226{\272?|\353O\303!7\271?\251\'\343\267K=\271?\321\302\031\020J\356\264?g\251u\357KF\335?+\225J\245R\251\344?\\\234\326l\237\250\316?\377\377\377\377\377\377\324?\346:Fq\256c\324?\370#\247\371Z=\333?\232\231\231\231\231\231\271?\265\372RA\253/\265?\275\303\272-\363\021\272?H\264\302\346@\242\325?\331\347\220\232`\274\325?\200(\r\025\210\246\335?\356v\273\335n\267\333?\260\253\360\345\206\030\320?\001\000\000\000\000\000\330?\237ZX\351\251\205\325?G\027]t\321E\327?{\024\256G\341z\244?&\2736Q\262k\263?\341\220\233\214\241\352\275?6\007\022\255\2609\300?\002\241\344N\321\302\271?9\272)\251\016\261\341?\016\006\203\301`0\330?2\tv\025\276\334\260?\376\377\377\377\377\377\305?~\331\240\311\227\r\312?b\342\375\310i\276\326?333333\303?D:o1\244\363\266?\037\010[M-Z\273?6\007\022\255\2609\320?\022\353\322c\376^\313?\316\354z\221\265U\334?:\034\016\207\303\341\340?;\177\213\323\232\355\303?\376\377\377\377\377\377\317?Vzja\245\247\346?j\276V\317\016\201\313?\037\205\353Q\270\036\345?\2008\340\361\207\003\276?\323\014\356\345\212=\300?6\007\022\255\2609\300?\032\020J\356\024-\314?\345\375\374\307\014\256\351?i\265Z\255V\253\325?\322\310;\177\213\323\312?\004\000\000\000\000\000\312?5\371\262A\223/\313?\241T\230x?r\332?\n\327\243p=\n\307?\264\372RA\253/\245?Y\036ods^\265?H\264\302\346@\242\265?\261.=\346\357\265\321?;=\225\273\305\242\327?H$\022\211D\"\321?\276\334\020\003\322\261\304?\004\000\000\000\000\000\300?\305\271\216Q\234\353\310?\314\240T\230x?\342?\232\231\231\231\231\231\251?&\2736Q\262k\263?]\177\032\016\271\311\270?\347@\242\0256\007\262?\002\241\344N\321\302\251?\201\364\355\257L\024\332?\331l6\233\315f\343?\315\r1 \035K\311?\002\000\000\000\000\000\327?\017\232|\331\240\311\307?G\027]t\321E\327?\n\327\243p=\n\267?\226{\032a\271\247\301?\201L\373lg\242\274?H\264\302\346@\242\265?\002\241\344N\321\302\271?\0003\270&q\033\337?\211D\"\221H$\342?@:\2262\tv\305?\376\377\377\377\377\377\320?\021x\373!\201\267\337?Y\006\245\302\304\373\301?\315\314\314\314\314\314\344?a\271\247\021\226{\272?\377\233%\230\304\354\272?\347@\242\0256\007\262?\261.=\346\357\265\261?t\304\006>c8\332?\016\006\203\301`0\330?E\365\240\221w\376\306?\001\000\000\000\000\200\340?U\013+=\265\260\322?\231x?r\232\257\325?\270\036\205\353Q\270\316?&\2736Q\262k\263?\237W\205x\212\244\271?\251\'\343\267K=\311?\207\324\004\343\255\354\343?\201\216}bj\335\333?\255V\253\325j\265\332?\261\253\360\345\206\030\300?\002\000\000\000\000\000\302?\345\313\006M\276l\320?\274\0379\315\327\352\331?\244p=\n\327\243\320?\226{\032a\271\247\261?\275\303\272-\363\021\272?p\227z2~\273\324?%w\212\026\316\200\340?\224\314\340\232\304m\334?\013\207\303\341p8\334?]\234\326l\237\250\276?\004\000\000\000\000\000\312?\353\030\305\271\216Q\314?4(\025&\336\217\334?\000\000\000\000\000\000\000\000a\271\247\021\226{\272?\024\345XP\\\030\261?\347@\242\0256\007\262?\241\344N\321\302\031\240?:\271\302jD:\315?\261\327\353\365z\275\336?\315\r1 \035K\311?\377\377\377\377\377\377\344?\305\271\216Q\234\353\310?\363\265zv\010\334\330?\232\231\231\231\231\231\271?\357\370\303\001\217?\254?y\212\244\031\334\313\265?\343\267K=\031\277\335?=\346\357\265\021\353\322?\347\321\202\004\324\354\332?:\034\016\207\303\341\340?Ok\266OT\017\312?\374\377\377\377\377\377\307?\345\313\006M\276l\320?\000\000\000\000\000\000\340?{\024\256G\341z\244?\264\372RA\253/\245?\037\010[M-Z\273?\251\'\343\267K=\271?\"5\301x+\373\254?u]/\262\266\212\327?\212F\243\321h4\332?]\234\326l\237\250\276?\376\377\377\377\377\377\305?0\0334\371\262A\323?\241T\230x?r\332?ffffff\326?\316[\014\351\274\305\300?cAqaD\240\277?\321\n\233\003\211V\330?\271S\264p\006\204\322?\n\2371\034-H\340?/\227\313\345r\271\334?\303\227\033b@:\306?\002\000\000\000\000\000\327?x\373!\201\267\037\322?\231x?r\232\257\325?{\024\256G\341z\244?\357\370\303\001\217?\254?\037\010[M-Z\273?\013\233\003\211V\330\314?\311\235\242\2053 \304?\264\007s\036\227\276\335?p\267\333\355v\273\335?\266f\373D\365\240\301?\000\000\000\000\000\000\316?\017\232|\331\240\311\327?\274\0379\315\327\352\331?\354Q\270\036\205\353\301?a\271\247\021\226{\272?\374:z\356~\201\267?6\007\022\255\2609\300?\"5\301x+\373\314?\343\357\262\204\007\014\340?\252\325j\265Z\255\326?;\177\213\323\232\355\303?\000\000\000\000\000\000\304?x\373!\201\267\037\322?\274\0379\315\327\352\331?\217\302\365(\\\217\322?\323y\213!\235\267\250?y\212\244\031\334\313\305?\013\233\003\211V\330\274?\271S\264p\006\204\302?\243[,z\3038\341?\212F\243\321h4\332?g\373D\365\240\221\347?\374\377\377\377\377\377\267?0\0334\371\262A\323?\314\240T\230x?\342?\000\000\000\000\000\000\320?|\032a\271\247\021\306?\037\010[M-Z\273?\343\267K=\031\277\335?\2766b]z\314\337?gC\005\242i\017\337?\252\325j\265Z\255\326?P&\301\256\302\227\253?\370\377\377\377\377\377\273?~\331\240\311\227\r\312?\030]t\321E\027\335?\270\036\205\353Q\270\256?\265\372RA\253/\265?\242\2700\"\320\017\275?\251\'\343\267K=\271?\331\347\220\232`\274\305?\377\212\3360N\260\343?\356\365z\275^\257\347?W\341\313\r1 \315?\376\377\377\377\377\377\305?\323S\013+=\265\340?\216eP*L\274\317?\037\205\353Q\270\036\345?z\213!\235\267\030\302?\232\366\331\316D9\306?\227z2~\273\324\303?\271S\264p\006\204\302?\n\2371\034-H\340?O&\223\311d2\331?\260\253\360\345\206\030\320?\376\377\377\377\377\377\337?\346:Fq\256c\324?G\027]t\321E\307?\256G\341z\024\256\327?\226{\032a\271\247\261?\266\001d\332g;\263?\277]\352\311\370\355\342?\022\353\322c\376^\333?\343\255I\334\306\327\322?+\026\213\305b\261\330?8\304\200t,e\322?\000\000\000\000\000\200\341?5\371\262A\223/\313?\253g\207\300\215e\320?333333\323?&\2736Q\262k\263?E\325;\254\3332\277?\347@\242\0256\007\262?\n\306[\331\347\220\312?\2400\347q\351\333\317?p\267\333\355v\273\335?<\177\213\323\232\355\263?\000\000\000\000\000\000\341?\304JO-\254\364\324?7\226A\2510\361\336?\270\036\205\353Q\270\276?\2008\340\361\207\003\276?\024\345XP\\\030\301?\227z2~\273\324\303?\261.=\346\357\265\301?5\013\022P\263\353\345?\331l6\233\315f\343?\331>Q=h\344\315?\000\000\000\000\000\000\316?1\212s\035\2438\327?\216eP*L\274\317?\315\314\314\314\314\314\334?a\271\247\021\226{\272?\237W\205x\212\244\271?2~\273\324\223\361\333?UUUUUU\325?\272{_2\352\251\334?p\267\333\355v\273\335?3\tv\025\276\334\320?\000\000\000\000\000\200\341?Vzja\245\247\246?\320\016\201\033\313\240\324?\n\327\243p=\n\307?\265\372RA\253/\265?\236W\205x\212\244\251?Zas \321\n\313?\177\257\215X\227\036\343?\326\222\270\215\257\345\305?\211D\"\221H$\342?\277\334\020\003\322\261\324?\000\000\000\000\000\000\346?\345\313\006M\276l\320?\353\331!pc\031\324?\n\327\243p=\n\327?B:o1\244\363\326?|\353O\303!7\271?\013\233\003\211V\330\314?\301x+\373\034R\343?\206\030\'\330Y)\342?\261\327\353\365z\275\336?w\025\276\334\020\003\322?\000\000\000\000\000\000\324?\304JO-\254\364\324?\375\221\323|\255\236\275?\256G\341z\024\256\327?\225{\032a\271\247\241?\037\010[M-Z\273?\251\'\343\267K=\271?\022\353\322c\376^\273?\243[,z\3038\341?\212F\243\321h4\332?\324\203F\336\371[\314?\376\377\377\377\377\377\305?\300\333\017\t\274\375\300?j\276V\317\016\201\313?333333\303?\016x\374\341\200\307\257?\237W\205x\212\244\271?\347@\242\0256\007\262?\321\302\031\020J\356\264?\001\267\212w\362\203\331?H$\022\211D\"\341?6\304\200t,e\302?\002\000\000\000\000\000\302?f\203&_6h\342?\353\331!pc\031\304?\366(\\\217\302\365\340?D:o1\244\363\266?\027F\004\372\241\203\264?\013\233\003\211V\330\234?\002\241\344N\321\302\231?aS\353\336\227\214\332?\013\207\303\341p8\314?\271!\006\244c)\323?\001\000\000\000\000\000\330?\352\251\205\225\236Z\330?\353\331!pc\031\304?=\n\327\243p=\342?&\2736Q\262k\263?Hh\324\t\277\'\305? \321\n\233\003\211\326?\2766b]z\314\337?0N\260\263R\204\340?\212F\243\321h4\332?]\234\326l\237\250\276?\374\377\377\377\377\377\307?\013+=\265\260\322\323?4(\025&\336\217\334?)\\\217\302\365(\314?D:o1\244\363\266?=\023\345XP\\\270?\013\233\003\211V\330\274?\022\353\322c\376^\273?z\201h\332\303\237\337?\013\207\303\341p8\334?\322\261\224I\260\253\340?\002\000\000\000\000\000\322?\346:Fq\256c\324?\320\016\201\033\313\240\324?\270\036\205\353Q\270\316?&\2736Q\262k\263?\201L\373lg\242\274?Zas \321\n\313?\241\344N\321\302\031\340?\266\231\217\262\035\311\341?\215\307\343\361x<\336?\310R&\301\256\302\307?\000\000\000\000\000\000\304?\r\232|\331\240\311\347?=;\004n,\203\322?\\\217\302\365(\\\337?\1778\340\361\207\003\316?E\325;\254\3332\277?\347@\242\0256\007\262?%w\212\026\316\200\320?\036\205nJ\252C\354?\013\207\303\341p8\334?\322\310;\177\213\323\312?\377\377\377\377\377\377\344?\017\232|\331\240\311\327?\"pc\031\224\n\303?R\270\036\205\353Q\330?\322y\213!\235\267\270?\027F\004\372\241\203\264?6\007\022\255\2609\320?\n\306[\331\347\220\332?\024(\246\326\275/\331?\031\014\006\203\301`\340?\331>Q=h\344\315?\001\000\000\000\000\200\340?~\331\240\311\227\r\312?\"pc\031\224\n\343?\341z\024\256G\341\312?\357\370\303\001\217?\314?\340/\360\342[\177\272?Zas \321\n\313?m\304\272\364\230\277\327?O#\322\351B\236\343?\371|>\237\317\347\343?\331>Q=h\344\315?\000\000\000\000\000\000\276?\351:Fq\256c\304?j\276V\317\016\201\333?\341z\024\256G\341\312?\016x\374\341\200\307\257?\302$f\3278}\275?\371\355RO\306o\307?\311\235\242\2053 \304?\026xY\302\003\006\340?Z\255V\253\325j\345?\315\r1 \035K\311?\004\000\000\000\000\000\312?\237ZX\351\251\205\325?\353\331!pc\031\304?\217\302\365(\\\217\322?&\2736Q\262k\303?\306\267\3764\034r\323?\371\355RO\306o\307?\241\344N\321\302\031\300?(\231\3015\211\333\330?\016\006\203\301`0\330?\364\2678\255\331>\321?\000\000\000\000\000\200\341?Vzja\245\247\306?\274\0379\315\327\352\331?{\024\256G\341z\204?\226{\032a\271\247\261?\242\2700\"\320\017\275?\251\'\343\267K=\271?2\177\257\215X\227\276?L+E\010\332\\\341?\374\375~\277\337\357\347?\\\234\326l\237\250\316?\000\000\000\000\000\000\324?|\331\240\311\227\r\332?\363\265zv\010\334\330?\270\036\205\353Q\270\316?\264\372RA\253/\305?\246K\311\177\263\004\303?\016$Zas \321?%w\212\026\316\200\320?O\360\031\303\321\202\344?\212F\243\321h4\332?Ok\266OT\017\312?\376\377\377\377\377\377\305?[X\351\251\205\225\316?G\027]t\321E\307?\037\205\353Q\270\036\325?\361\370\303\001\217?\274?\232\366\331\316D9\266?\347@\242\0256\007\322?\372{m\304\272\364\310?\210\233\222\352\020\033\330?\261\327\353\365z\275\336?3\tv\025\276\334\320?\377\377\377\377\377\377\341?x\373!\201\267\037\322?\353\331!pc\031\344?\000\000\000\000\000\000\000\000\2008\340\361\207\003\276?u)\371o\226`\302?H\264\302\346@\242\325?v\3511\177\257\215\330?z\201h\332\303\237\337?\315\345r\271\\.\327?\322\310;\177\213\323\312?\004\000\000\000\000\000\312?~\331\240\311\227\r\312?\264C\340\3062(\325?\000\000\000\000\000\000\320?\2008\340\361\207\003\276?\302$f\3278}\275?6\007\022\255\2609\300?\372{m\304\272\364\310?\2400\347q\351\333\337?\211D\"\221H$\342?Nk\266OT\017\272?\000\000\000\000\000\000\331?5\371\262A\223/\333?/\272\350\242\213.\332?\354Q\270\036\205\353\321?\355\332D\311\256M\304?\302VS\213\326\006\300?\273\324\223\361\333\245\316?\n\306[\331\347\220\332?\213\325\210t\272\220\347?/\227\313\345r\271\334?]\234\326l\237\250\276?\374\377\377\377\377\377\307?\017\232|\331\240\311\307?\017\201\033\313\240T\350?{\024\256G\341z\264?\322y\213!\235\267\270?\374:z\356~\201\267?6\007\022\255\2609\320?\321\302\031\020J\356\304?\315\206\nD\323\036\336?\352t:\235N\247\343?6\304\200t,e\302?\000\000\000\000\000\000\331?5\371\262A\223/\313?u\321E\027]t\341?{\024\256G\341z\264?&\2736Q\262k\263?$\233\363\252\020O\301?6\007\022\255\2609\300?\321\302\031\020J\356\264?N\025\210\246=\374\331?(\024\n\205B\241\340??:\2262\tv\265?\000\000\000\000\000\000\316?U\013+=\265\260\322?\264C\340\3062(\305?R\270\036\205\353Q\340?\016x\374\341\200\307\257?\270\3764\034r\223\341?\013\233\003\211V\330\314?\311\235\242\2053 \324?\343\357\262\204\007\014\340?\215\307\343\361x<\316?\2272\tv\025\276\334?\370\377\377\377\377\377\273?\300\333\017\t\274\375\320?\330\352\331!pc\311?\327\243p=\n\327\323?\357\370\303\001\217?\254?\201L\373lg\242\274? \321\n\233\003\211\326?m\304\272\364\230\277\327?\331\035\311Ai\250\340?\211D\"\221H$\342?\303\227\033b@:\306?\000\000\000\000\000\000\304?\177H\340\355\207\004\336?\016\201\033\313\240T\310?=\n\327\243p=\332?\322y\213!\235\267\270?\003\375\320A\nX\276?\347@\242\0256\007\302?]z\314\337k#\326?\037\325!6\360\031\343?\353\365z\275^\257\327?Nk\266OT\017\272?\000\000\000\000\000\000\304?B\223/\0334\371\342?\241T\230x?r\332?q=\n\327\243p\345?A\253/\025\264\372\322?cAqaD\240\277?\347@\242\0256\007\262?\321\302\031\020J\356\264?O\360\031\303\321\202\344?\016\006\203\301`0\330?R&\301\256\302\227\313?\000\000\000\000\000\200\350?\345\313\006M\276l\340?\330\352\331!pc\271?q=\n\327\243p\335?\016x\374\341\200\307\257?\377\233%\230\304\354\272?\347@\242\0256\007\262?\362V\3669\244&\270?9\272)\251\016\261\341?l6\233\315f\263\331?\017\032y\347oq\332?\002\000\000\000\000\000\327?\305\271\216Q\234\353\310?\274\0379\315\327\352\331?{\024\256G\341z\244?\264\372RA\253/\245?\266\001d\332g;\263?\013\233\003\211V\330\254?\002\241\344N\321\302\231?\256J\021\2026W\330?H$\022\211D\"\341?\276\334\020\003\322\261\304?\000\000\000\000\000\000\304?\304JO-\254\364\324?O\363\265zv\010\334?\232\231\231\231\231\231\271?\226{\032a\271\247\301?\343\302\210@?t\300?\013\233\003\211V\330\314?\022\353\322c\376^\313?\203\3360N\260\263\342?\356v\273\335n\267\333?3\tv\025\276\334\300?\000\000\000\000\000\000\304?\177H\340\355\207\004\336?\220\234\346k\365\354\320?q=\n\327\243p\335?D:o1\244\363\266?\003/\276\365\247\341\300?6\007\022\255\2609\300?\032\020J\356\024-\314?\200(\r\025\210\246\335?\214\305b\261X,\326?R&\301\256\302\227\313?\000\000\000\000\000\000\341?\024x\373!\201\267\317?b\342\375\310i\276\326?R\270\036\205\353Q\310?\016x\374\341\200\307\257?\341\220\233\214\241\352\275?\251\'\343\267K=\311?\341\014\010%w\212\306?\272\025\357\344\007s\336?\273\\.\227\313\345\342?\322\310;\177\213\323\312?\000\000\000\000\000\000\324?\345\313\006M\276l\340?G\027]t\321E\307?\217\302\365(\\\217\342?\323y\213!\235\267\310?#\233\363\252\020O\321?\347@\242\0256\007\262?\241\344N\321\302\031\260?\n\2371\034-H\340?\252\325j\265Z\255\326?\324\203F\336\371[\314?\002\000\000\000\000\000\334?1\212s\035\2438\327?~\255\236\035\0027\326?\244p=\n\327\243\320?\361\370\303\001\217?\274?es^\025\342)\302?H\264\302\346@\242\265?\311\235\242\2053 \304?9\272)\251\016\261\341?\255V\253\325j\265\332?\276\334\020\003\322\261\304?\004\000\000\000\000\000\300?\300\333\017\t\274\375\320?\"pc\031\224\n\323?\327\243p=\n\327\323?\316[\014\351\274\305\300?]\177\032\016\271\311\270?H\264\302\346@\242\245?\"5\301x+\373\254?\223W\277\313\022\036\340?\016\006\203\301`0\330?3\tv\025\276\334\300?\002\000\000\000\000\000\322?[X\351\251\205\225\316?4(\025&\336\217\334?\000\000\000\000\000\000\000\000&\2736Q\262k\263?$i\006\367r\305\276?\347@\242\0256\007\262?\022\353\322c\376^\273?F\204\240\315\025V\343?{\275^\257\327\353\345?\210\001\351X\312$\330?\002\000\000\000\000\000\314?Vzja\245\247\306?\353\331!pc\031\324?\000\000\000\000\000\000\000\000\016x\374\341\200\307\257?Y\036ods^\265?\347@\242\0256\007\322?\261.=\346\357\265\301?\0207%\325!6\320?i4\032\215F\243\341?3\tv\025\276\334\300?\001\000\000\000\000\000\343?x\373!\201\267\037\322?Y\006\245\302\304\373\321?\244p=\n\327\243\320?\226{\032a\271\247\261?\323\014\356\345\212=\300?\227z2~\273\324\323?=\346\357\265\021\353\322?\371%\243\236\312\335\342?Z,\026\213\305b\341?\336\371[\234\326l\317?\370\377\377\377\377\377\273?[X\351\251\205\225\316?\340\3062(\025&\336?{\024\256G\341z\324?D:o1\244\363\266?=\023\345XP\\\270?\273\324\223\361\333\245\336?E\013g@(\271\343?-\211\333\370Z^\335?p\267\333\355v\273\335?S&\301\256\302\227\273?\000\000\000\000\000\000\304?U\013+=\265\260\322?O\363\265zv\010\334?{\024\256G\341z\204?\361\370\303\001\217?\274?`\340\305\267\3764\274?\013\233\003\211V\330\314?\002\241\344N\321\302\311?g\251u\357KF\335?\215\307\343\361x<\336?\336\371[\234\326l\317?\376\377\377\377\377\377\337?|\373!\201\267\037\242?+L\274\0379\315\347?{\024\256G\341z\244?\225{\032a\271\247\241?`\340\305\267\3764\254?\347@\242\0256\007\342?\2766b]z\314\337?\303r\267X\364\206\321?^.\227\313\345r\351?D\365\240\221w\376\266?\000\000\000\000\000\000\324?\305\271\216Q\234\353\310?O\363\265zv\010\334?{\024\256G\341z\224?\265\372RA\253/\265?`\340\305\267\3764\274?\251\'\343\267K=\271?\"5\301x+\373\254?(\3771\203k\022\327?\261\327\353\365z\275\336?\303\227\033b@:\306?\001\000\000\000\000\000\323?\237ZX\351\251\205\325?G\027]t\321E\327?{\024\256G\341z\244?&\2736Q\262k\263?\341\220\233\214\241\352\275?6\007\022\255\2609\300?\002\241\344N\321\302\271?9\272)\251\016\261\341?\016\006\203\301`0\330?2\tv\025\276\334\260?\376\377\377\377\377\377\305?\235\353\030\305\271\216\321?`\253g\207\300\215\345?\205\353Q\270\036\205\333?D:o1\244\363\266?y\212\244\031\334\313\305?\277]\352\311\370\355\322?\331\347\220\232`\274\345?\n\2371\034-H\340?l6\233\315f\263\331?\\\234\326l\237\250\316?\370\377\377\377\377\377\273?\304JO-\254\364\324?\375\221\323|\255\236\275?\341z\024\256G\341\332?&\2736Q\262k\263?\242\2700\"\320\017\275?\347@\242\0256\007\302?\251\t\306[\331\347\300?\243[,z\3038\341?\353\365z\275^\257\327?w\025\276\334\020\003\322?\002\000\000\000\000\000\302?1\212s\035\2438\327?\340\3062(\025&\336?\000\000\000\000\000\000\000\000\355\332D\311\256M\304?$i\006\367r\305\276?H\264\302\346@\242\305?\331\347\220\232`\274\305?\351\254\024!hs\345?\316\347\363\371|>\337?7\304\200t,e\262?\002\000\000\000\000\000\302?\353\030\305\271\216Q\314?\330\352\331!pc\331?{\024\256G\341z\204?\322y\213!\235\267\270?\201L\373lg\242\274?p\227z2~\273\324?\372{m\304\272\364\310?\310\374`\316\343\322\327?(\024\n\205B\241\340?@:\2262\tv\305?\001\000\000\000\000\000\330?1\212s\035\2438\327?\"pc\031\224\n\323?333333\323?\316[\014\351\274\305\300?\333\316D9\026\024\267?6\007\022\255\2609\300?\261.=\346\357\265\301?\264\007s\036\227\276\335?p\267\333\355v\273\335?Ok\266OT\017\312?\376\377\377\377\377\377\332?Vzja\245\247\306?4(\025&\336\217\334?\000\000\000\000\000\000\000\000^\233(\331\265\211\302?\211@?t\220\002\306?\347@\242\0256\007\322?\311\235\242\2053 \304?\315\271\302jD:\335?z<\036\217\307\343\341?E\365\240\221w\376\306?\002\000\000\000\000\000\322?\304JO-\254\364\324?4(\025&\336\217\334?333333\303?\226{\032a\271\247\261?\201L\373lg\242\274?\013\233\003\211V\330\314?\"5\301x+\373\314?V\375.Kx\300\340?/\227\313\345r\271\334?\261\253\360\345\206\030\300?\376\377\377\377\377\377\305?f\203&_6h\342?4(\025&\336\217\314?H\341z\024\256G\341?\017x\374\341\200\307\277?D\007)`y\274\301?\347@\242\0256\007\322?\177\257\215X\227\036\343?\213\325\210t\272\220\347?\347t:\235N\247\323?S&\301\256\302\227\273?\000\000\000\000\000\000\304?\353\030\305\271\216Q\314?G\027]t\321E\307?\354Q\270\036\205\353\321?&\2736Q\262k\263?\341\220\233\214\241\352\275?Zas \321\n\333?\372{m\304\272\364\330?\251\317\030\216\026$\340?z<\036\217\307\343\341?D\365\240\221w\376\266?\002\000\000\000\000\000\302?\017\232|\331\240\311\307?\216eP*L\274\317?H\341z\024\256G\321?\300\343\017\007<\376\340?\034\247\257\243\347\356\267?p\227z2~\273\324?\236\242\2053 \224\354?U\"\235.\3449\326?L\245R\251T*\325?6\304\200t,e\302?\002\000\000\000\000\000\334?|\331\240\311\227\r\332?\264C\340\3062(\345?\270\036\205\353Q\270\316?\2008\340\361\207\003\276?\302VS\213\326\006\300?\227z2~\273\324\303?oe\237Cj\202\341?\030\310\014\256I\334\346?\251T*\225J\245\342?\261\253\360\345\206\030\300?\004\000\000\000\000\000\312?\020\t\274\375\220\300\333?*L\274\0379\315\327?H\341z\024\256G\321?\322y\213!\235\267\270?\341\220\233\214\241\352\275?\227z2~\273\324\323?\226}\016\251\t\306\353?i\010\332\\a5\342?\255V\253\325j\265\332?3\tv\025\276\334\300?\002\000\000\000\000\000\302?Vzja\245\247\326?=;\004n,\203\322?H\341z\024\256G\321?\322y\213!\235\267\270?t)\371o\226`\262?\371\355RO\306o\307?\261.=\346\357\265\301?\216\334\306\327\362\352\327?\214\305b\261X,\326?w\025\276\334\020\003\322?\376\377\377\377\377\377\332?\237ZX\351\251\205\325?\033\313\240T\230x\337?\232\231\231\231\231\231\311?a\271\247\021\226{\272?\037\010[M-Z\273?6\007\022\255\2609\300?\002\241\344N\321\302\311?\020\004m\256\260\032\341?/\227\313\345r\271\334?\310R&\301\256\302\307?\002\000\000\000\000\000\302?U\013+=\265\260\322?\360GN\363\265z\326?\270\036\205\353Q\270\256?)\331\265\211\222]\313?\302VS\213\326\006\300?\371\355RO\306o\327?]z\314\337k#\326?\223fpM\3426\336?\316\347\363\371|>\337?Ok\266OT\017\312?\376\377\377\377\377\377\325?U\013+=\265\260\322?\221\234\346k\365\354\260?ffffff\326?\357\370\303\001\217?\254?V\275\303\272-\363\261?H\264\302\346@\242\265?\"5\301x+\373\254?\365\205<\307>1\325?L\247\323\351t:\335?w\025\276\334\020\003\322?\000\000\000\000\000\000\341?\256c\024\347:F\341?\016\201\033\313\240T\310?\366(\\\217\302\365\340?\2008\340\361\207\003\276?]\177\032\016\271\311\270?\013\233\003\211V\330\254?\241\344N\321\302\031\260?V\375.Kx\300\340?(\225J\245R\251\324?J\260\253\360\345\206\310?\000\000\000\000\000\000\331?\223\373!\201\267\037\202?\330\352\331!pc\331?\303\365(\\\217\302\305?\322y\213!\235\267\270?\326m\231\217\320\250\263?\013\233\003\211V\330\314?\311\235\242\2053 \344?\307x\216}bj\315?\000\177\277\337\357\367\353?\276\334\020\003\322\261\304?\000\000\000\000\000\000\346?\237ZX\351\251\205\305?$\247\371Z=;\344?\000\000\000\000\000\000\000\000\322y\213!\235\267\270?\343\302\210@?t\320?\347@\242\0256\007\262?\301x+\373\034R\243?\233\246=\374\371\217\331?+\225J\245R\251\344?S&\301\256\302\227\273?\002\000\000\000\000\000\327?\2448\3271\212s\315?j\276V\317\016\201\273?\256G\341z\024\256\327?\361\370\303\001\217?\274?y\212\244\031\334\313\265?\347@\242\0256\007\302?\032\020J\356\024-\314?\366\270\364\355\257L\324?\352t:\235N\247\343?w\025\276\334\020\003\322?\000\000\000\000\000\200\343?\305\271\216Q\234\353\310?j\276V\317\016\201\333?\000\000\000\000\000\000\000\000\017x\374\341\200\307\277?\013\361\024I3\270\307?\251\'\343\267K=\311?\331\347\220\232`\274\305?\356x\'?\230\363\330?i4\032\215F\243\341?E\365\240\221w\376\306?\002\000\000\000\000\000\334?\345\313\006M\276l\320?\320\016\201\033\313\240\324?{\024\256G\341z\224?\357\370\303\001\217?\254?$i\006\367r\305\276?H\264\302\346@\242\305?\311\235\242\2053 \304?\356x\'?\230\363\330?\316\347\363\371|>\337?\261\253\360\345\206\030\300?\000\000\000\000\000\000\324?\345\313\006M\276l\320?b\342\375\310i\276\326?\270\036\205\353Q\270\316?&\2736Q\262k\263?`\340\305\267\3764\274?6\007\022\255\2609\300?\261.=\346\357\265\301?F\204\240\315\025V\343?z<\036\217\307\343\341?\364\2678\255\331>\321?\000\000\000\000\000\000\304?\240\311\227\r\232|\331? 9\315\327\352\331\341?\000\000\000\000\000\000\000\000\2008\340\361\207\003\276?U\275\303\272-\363\301?\347@\242\0256\007\302?\241\344N\321\302\031\300?5\013\022P\263\353\345?\261\327\353\365z\275\336?\271!\006\244c)\323?\002\000\000\000\000\000\302?\235\353\030\305\271\216\341?u\321E\027]t\321?\037\205\353Q\270\036\325?\361\370\303\001\217?\274?\206\337\223\312J\227\302?\016$Zas \321?\002\241\344N\321\302\311?<\345n\261\350\r\343?O&\223\311d2\331?W\341\313\r1 \315?\002\000\000\000\000\000\327?\017\232|\331\240\311\307?\"pc\031\224\n\323?{\024\256G\341z\224?D:o1\244\363\266?\242\2700\"\320\017\275?\224\361\333\245\236\214\337?\023\214\267\262\317!\345?\025[^\375.K\330?\211D\"\221H$\322?]\234\326l\237\250\276?\374\377\377\377\377\377\307?\017\232|\331\240\311\327?Y\006\245\302\304\373\321?\315\314\314\314\314\314\334?\2008\340\361\207\003\276?\272b\017\204\255\246\266?H\264\302\346@\242\265?\301x+\373\034R\263?\010\304\237\377\230\301\325?L\247\323\351t:\335?\265f\373D\365\240\321?\000\000\000\000\000\200\353?y\373!\201\267\037\302?\264C\340\3062(\325?{\024\256G\341z\264?HX\356i\204\345\316?|\353O\303!7\271?\347@\242\0256\007\302?\321\302\031\020J\356\304?\007\247\244:\304\006\336?+\225J\245R\251\344?E\365\240\221w\376\306?\377\377\377\377\377\377\336?0\0334\371\262A\323?\033\313\240T\230x\337?)\\\217\302\365(\314?\322y\213!\235\267\270?\377\233%\230\304\354\272?H\264\302\346@\242\305?\256\354sHM0\336?\000\000\000\000\000\000\340?O&\223\311d2\331?\261\253\360\345\206\030\300?\000\000\000\000\000\000\304?\303JO-\254\364\344?j\276V\317\016\201\313?\354Q\270\036\205\353\341?\265\372RA\253/\265?$\233\363\252\020O\301?\347@\242\0256\007\262?\"5\301x+\373\274?|\004\324\354z\221\345?\013\205B\241P(\324?W\341\313\r1 \315?\001\000\000\000\000\000\330?Vzja\245\247\306?r\232\257\325\263C\340?{\024\256G\341z\224?GX\356i\204\345\336?\373:z\356~\201\307?O\306o\227z2\356?m\304\272\364\230\277\347?5\013\022P\263\353\345?\233L&\223\311d\342?]\234\326l\237\250\276?\002\000\000\000\000\000\314?0\0334\371\262A\323?j\276V\317\016\201\273?\205\353Q\270\036\205\333?\357\370\303\001\217?\254?\374:z\356~\201\267?\277]\352\311\370\355\322?\261.=\346\357\265\321?\274e\242\320MI\325?\007\004\002\201@ \340?\276\334\020\003\322\261\304?\000\000\000\000\000\000\341?\2448\3271\212s\315?4(\025&\336\217\334?\037\205\353Q\270\036\325?\361\370\303\001\217?\274?\034\247\257\243\347\356\267?\343\267K=\031\277\335?\301x+\373\034R\343?6M{\370\363\037\323?\255V\253\325j\265\332?\364\2678\255\331>\321?\001\000\000\000\000\200\345?\300\333\017\t\274\375\320?~\255\236\035\0027\326?\244p=\n\327\243\300?\361\370\303\001\217?\274?es^\025\342)\302?p\227z2~\273\324?\362V\3669\244&\330?\031p\346\243lG\342?\031\014\006\203\301`\340?@:\2262\tv\305?\002\000\000\000\000\000\302?U\013+=\265\260\322?\017\201\033\313\240T\350?\232\231\231\231\231\231\251?D:o1\244\363\266?$i\006\367r\305\276?H\264\302\346@\242\305?\271S\264p\006\204\302?40\2003\037e\333?\016\006\203\301`0\330?3\tv\025\276\334\300?\002\000\000\000\000\000\314?\020\t\274\375\220\300\333?$\247\371Z=;\344?H\341z\024\256G\321?\322y\213!\235\267\270?$i\006\367r\305\276?Zas \321\n\333?\330F\254K\217\371\353?\206\030\'\330Y)\342?O&\223\311d2\331?]\234\326l\237\250\276?\002\000\000\000\000\000\302?\024x\373!\201\267\317?\207\300\215eP*\354?\000\000\000\000\000\000\000\000\234(\331\265\211\222\315?es^\025\342)\302?\013\233\003\211V\330\254?\002\241\344N\321\302\251?\340\304m|-\257\336?\233\315f\263\331l\346?\261\253\360\345\206\030\300?\376\377\377\377\377\377\325?\021x\373!\201\267\337?\006\245\302\304\373\221\323?)\\\217\302\365(\344?\226{\032a\271\247\301?\237W\205x\212\244\271?6\007\022\255\2609\300?\241\344N\321\302\031\300?z\201h\332\303\237\337?L\245R\251T*\325?\364\2678\255\331>\321?\000\000\000\000\000\000\344?5\371\262A\223/\313?\016\201\033\313\240T\330?\270\036\205\353Q\270\276?\226{\032a\271\247\261?\003/\276\365\247\341\300?\343\267K=\031\277\335?m\304\272\364\230\277\347?N\025\210\246=\374\331?i4\032\215F\243\341?D\365\240\221w\376\266?\000\000\000\000\000\000\324?\345\313\006M\276l\320?\320\016\201\033\313\240\324?{\024\256G\341z\224?\357\370\303\001\217?\254?$i\006\367r\305\276?H\264\302\346@\242\305?\311\235\242\2053 \304?\356x\'?\230\363\330?\316\347\363\371|>\337?\261\253\360\345\206\030\300?\000\000\000\000\000\000\324?\235\353\030\305\271\216\321?\016\201\033\313\240T\330?\232\231\231\231\231\231\271?\016x\374\341\200\307\257?\266\001d\332g;\303?\321\n\233\003\211V\330?\217\371{m\304\272\344?t\304\006>c8\332?H$\022\211D\"\321?I\260\253\360\345\206\270?\004\000\000\000\000\000\312?\017\232|\331\240\311\327?\304\373\221\323|\255\316?{\024\256G\341z\344?D:o1\244\363\266?$\233\363\252\020O\301?\013\233\003\211V\330\274?\"5\301x+\373\314?\002\222\034\224\206\n\344?\013\205B\241P(\344?\315\r1 \035K\311?\000\000\000\000\000\000\324?\353\030\305\271\216Q\314?\363\265zv\010\334\330?\000\000\000\000\000\000\000\000\265\372RA\253/\265?\003/\276\365\247\341\300?\013\233\003\211V\330\274?\002\241\344N\321\302\251?\334\2404T \232\326?H$\022\211D\"\341?3\tv\025\276\334\300?\000\000\000\000\000\000\336?5\371\262A\223/\313?(\025&\336\217\234\346?{\024\256G\341z\244?&\2736Q\262k\263?\302VS\213\326\006\300?\227z2~\273\324\303?v\3511\177\257\215\330?t\304\006>c8\332?\261\327\353\365z\275\336?\276\334\020\003\322\261\304?\002\000\000\000\000\000\302?{ja\245\247\026\326?\006\245\302\304\373\221\323?)\\\217\302\365(\274?\322y\213!\235\267\270?$i\006\367r\305\276?\013\233\003\211V\330\274?v\3511\177\257\215\330?z\201h\332\303\237\337?i\265Z\255V\253\325?]\234\326l\237\250\276?\002\000\000\000\000\000\302?U\013+=\265\260\322?\241T\230x?r\312?q=\n\327\243p\315?\016x\374\341\200\307\257?@t\220\002\226\307\273?\227z2~\273\324\323?-\234\001\241\344N\321?g\251u\357KF\335?\312f\263\331l6\333?Ok\266OT\017\312?\004\000\000\000\000\000\300?\353\030\305\271\216Q\314?Y\006\245\302\304\373\321?\232\231\231\231\231\231\311?\226{\032a\271\247\261?@t\220\002\226\307\273?\321\n\233\003\211V\330?\301x+\373\034R\323?N\025\210\246=\374\331?\361\367\373\375~\277\337?\310R&\301\256\302\307?\001\000\000\000\000\000\323?\304JO-\254\364\324?\006\245\302\304\373\221\323?\n\327\243p=\n\327?\016x\374\341\200\307\257?\251\254t)\371o\326?\347@\242\0256\007\262?\241\344N\321\302\031\260?\323v$\007\245\241\342?\214\305b\261X,\326?\276\334\020\003\322\261\304?\000\000\000\000\000\000\304?\177H\340\355\207\004\336?\216eP*L\274\337?\232\231\231\231\231\231\341?\357\370\303\001\217?\254?\337/\360\342[\177\312?p\227z2~\273\324?\271S\264p\006\204\322?\255\372]\226\360\200\341?\261\327\353\365z\275\336?\005\244c)\223`\327?\000\000\000\000\000\000\316?\306(\316u\214\342\334?\264C\340\3062(\305?H\341z\024\256G\341?\361\370\303\001\217?\274?4Q\216\005\305\205\301?\321\n\233\003\211V\330?\266\021\353\322c\376\336?l3\037e;\222\343?\312f\263\331l6\333?\370rC\014H\307\322?\376\377\377\377\377\377\305?\235\353\030\305\271\216\321?\221\234\346k\365\354\300?333333\323?&\2736Q\262k\263?Y\036ods^\265?\273\324\223\361\333\245\316?\341\014\010%w\212\306?\210\233\222\352\020\033\330?\312f\263\331l6\333?\002\351X\312$\330\325?\002\000\000\000\000\000\334?\013+=\265\260\322\323?\234\346k\365\354\020\330?)\\\217\302\365(\314?\265\372RA\253/\265?@t\220\002\226\307\273?\227z2~\273\324\303?m\304\272\364\230\277\327?-#k\253x\'\337?\356v\273\335n\267\333?S&\301\256\302\227\273?\370\377\377\377\377\377\273?\300\333\017\t\274\375\340?\330\352\331!pc\311?=\n\327\243p=\342?\322y\213!\235\267\270?\302VS\213\326\006\300?\347@\242\0256\007\262?\341\014\010%w\212\266?\355\301\234\307\245o\337?\013\205B\241P(\324?\331>Q=h\344\315?\377\377\377\377\377\377\331?\351:Fq\256c\304?\216eP*L\274\317?\n\327\243p=\n\267?\322y\213!\235\267\270?V\275\303\272-\363\261?\343\267K=\031\277\335?\3511\177\257\215X\327?\035\335\224T\207\330\340?:\034\016\207\303\341\340?\322\310;\177\213\323\312?\001\000\000\000\000\000\323?\346:Fq\256c\324?G\027]t\321E\267?\341z\024\256G\341\332?\226{\032a\271\247\261?=\023\345XP\\\270?\013\233\003\211V\330\274?\261.=\346\357\265\261?6\263\353E\326V\321?\353\365z\275^\257\327?\261\253\360\345\206\030\300?\001\000\000\000\000\000\343?U\013+=\265\260\322?\340\3062(\025&\336?\341z\024\256G\341\312?\265\372RA\253/\265?\242\2700\"\320\017\275?\013\233\003\211V\330\334?\320!5\301x+\353?\032Kx\300\000\316\334?l6\233\315f\263\331?S&\301\256\302\227\273?\002\000\000\000\000\000\314?\2448\3271\212s\315?O\363\265zv\010\334?{\024\256G\341z\224?\322y\213!\235\267\270?4Q\216\005\305\205\301?\013\233\003\211V\330\254?\311\235\242\2053 \304?\017\\\223\270\215\257\345?\334\355v\273\335n\347?w\025\276\334\020\003\322?\374\377\377\377\377\377\307?\235\353\030\305\271\216\321?\340\3062(\025&\336?)\\\217\302\365(\314?\226{\032a\271\247\261?$i\006\367r\305\276?\273\324\223\361\333\245\316?\261.=\346\357\265\341?\316\354z\221\265U\334?/\227\313\345r\271\334?D\365\240\221w\376\266?\000\000\000\000\000\000\304?\304JO-\254\364\324?\216eP*L\274\317?R\270\036\205\353Q\330?\361\370\303\001\217?\274?4Q\216\005\305\205\301?p\227z2~\273\324?\331\347\220\232`\274\325?\254\307\245o\177e\342?/\227\313\345r\271\334?\324\203F\336\371[\314?\002\000\000\000\000\000\327?|\331\240\311\227\r\332?\353\331!pc\031\304?\n\327\243p=\n\327?D:o1\244\363\266?\201L\373lg\242\274?\347@\242\0256\007\302?\311\235\242\2053 \304?\364\233\371(\333\221\334?p\267\333\355v\273\335?\375-Nk\266O\324?\000\000\000\000\000\200\341?\r\232|\331\240\311\347?=;\004n,\203\322?\\\217\302\365(\\\337?\1778\340\361\207\003\316?E\325;\254\3332\277?\347@\242\0256\007\262?%w\212\026\316\200\320?\036\205nJ\252C\354?\013\207\303\341p8\334?\322\310;\177\213\323\312?\377\377\377\377\377\377\344?|\373!\201\267\037\262?\016\201\033\313\240T\330?{\024\256G\341z\264?\226{\032a\271\247\261?\367\331\316D9\026\264?\016$Zas \321?\311\235\242\2053 \304?O\341hA\002j\326?\312d2\231L&\343?\310R&\301\256\302\307?\376\377\377\377\377\377\320?\345\313\006M\276l\320?\264C\340\3062(\325?\232\231\231\231\231\231\331?D:o1\244\363\266?\027F\004\372\241\203\264?\227z2~\273\324\303?\341\014\010%w\212\266?\002\203k\022\267\361\325?\212F\243\321h4\332?\310R&\301\256\302\307?\001\000\000\000\000\200\340?\305\271\216Q\234\353\330?u\321E\027]t\321?\\\217\302\365(\\\337?\2008\340\361\207\003\276?$i\006\367r\305\276?\347@\242\0256\007\322?\226}\016\251\t\306\333?)A\233+\254F\344?\261\327\353\365z\275\336?6\304\200t,e\302?\374\377\377\377\377\377\307?\353\030\305\271\216Q\334?\353\331!pc\031\324?\n\327\243p=\n\327?\316[\014\351\274\305\300?\232\366\331\316D9\306? \321\n\233\003\211\326?E\013g@(\271\323?9\355\341\317\177\314\340?\214\305b\261X,\326?\322\310;\177\213\323\312?\001\000\000\000\000\000\330?[X\351\251\205\225\316?fP*L\274\037\351?\n\327\243p=\n\267?\357\370\303\001\217?\254?D\007)`y\274\321?6\007\022\255\2609\300?g@(\271S\264\340?\032Kx\300\000\316\334?\013\207\303\341p8\334?6\304\200t,e\302?\000\000\000\000\000\000\264?\300\333\017\t\274\375\340?\330\352\331!pc\311?333333\343?D:o1\244\363\266?\341\220\233\214\241\352\315?H\264\302\346@\242\265?\301x+\373\034R\263?\002\222\034\224\206\n\344?\215\307\343\361x<\316?\024\325\203F\336\371\333?\002\000\000\000\000\000\302?\237ZX\351\251\205\325?\246\302\304\373\221\323\334?\205\353Q\270\036\205\343?&\2736Q\262k\263?Y\036ods^\305?H\264\302\346@\242\305?\363\367\332\210u\351\341?\n\2371\034-H\340?L\245R\251T*\325?\261\253\360\345\206\030\300?\374\377\377\377\377\377\267?Z\351\251\205\225\236\332?\264C\340\3062(\305?=\n\327\243p=\342?&\2736Q\262k\263?\340/\360\342[\177\272?\371\355RO\306o\327?m\304\272\364\230\277\327?\343\357\262\204\007\014\340?\312f\263\331l6\333?\265f\373D\365\240\321?\376\377\377\377\377\377\325?\235\353\030\305\271\216\321?\016\201\033\313\240T\330?{\024\256G\341z\204?\016x\374\341\200\307\257?\323\014\356\345\212=\300?\227z2~\273\324\303?\301x+\373\034R\263?\324\223\037\314y\\\332?L\247\323\351t:\335?\266f\373D\365\240\301?\000\000\000\000\000\000\324?\2448\3271\212s\315?4(\025&\336\217\334?\270\036\205\353Q\270\236?\322y\213!\235\267\270?`\340\305\267\3764\274?Zas \321\n\313?\241\344N\321\302\031\340?\234\3038\301\316J\341?\371|>\237\317\347\343?6\304\200t,e\302?\374\377\377\377\377\377\307?~\331\240\311\227\r\312?\370#\247\371Z=\333?\303\365(\\\217\302\305?a\271\247\021\226{\272?Cn2\206\252w\330?\347@\242\0256\007\262?\301x+\373\034R\263?\316\354z\221\265U\334?(\024\n\205B\241\340?;\177\213\323\232\355\303?\002\000\000\000\000\000\322?\306(\316u\214\342\334?b\342\375\310i\276\326?\303\365(\\\217\302\305?\226{\032a\271\247\301?\302VS\213\326\006\300?\016$Zas \321?=\346\357\265\021\353\322?\376\342\004;+E\350?\013\205B\241P(\324?@:\2262\tv\305?\002\000\000\000\000\000\302?\345\313\006M\276l\320?\353\331!pc\031\324?\n\327\243p=\n\327?B:o1\244\363\326?|\353O\303!7\271?\013\233\003\211V\330\314?\301x+\373\034R\343?\206\030\'\330Y)\342?\261\327\353\365z\275\336?w\025\276\334\020\003\322?\000\000\000\000\000\000\324?C\002o?$\360\346?\330\352\331!pc\331?\315\314\314\314\314\314\344?\322y\213!\235\267\270?y\212\244\031\334\313\265?\347@\242\0256\007\262?2\177\257\215X\227\276?\362\030\216\026$\240\346?F\247\323\351t:\315?6\304\200t,e\302?\002\000\000\000\000\000\314?\300\333\017\t\274\375\320?\304\373\221\323|\255\316?\354Q\270\036\205\353\301?^\233(\331\265\211\302?\302VS\213\326\006\300?\347@\242\0256\007\322?*Z8\003B\311\315?\264\007s\036\227\276\335?L\247\323\351t:\335?6\304\200t,e\302?\000\000\000\000\000\000\324?0\0334\371\262A\323?\257\325\263C\340\306\342?H\341z\024\256G\321?&\2736Q\262k\263?\242\2700\"\320\017\275?\347@\242\0256\007\302?e\237Cj\202\361\326?\307E\326V\361N\336?\356v\273\335n\267\333?D\365\240\221w\376\266?\004\000\000\000\000\000\312?}\331\240\311\227\r\352?\006\245\302\304\373\221\323?q=\n\327\243p\345?^\233(\331\265\211\302?$\233\363\252\020O\301?\347@\242\0256\007\262?\"5\301x+\373\254?\002\222\034\224\206\n\344?\013\207\303\341p8\314?F\365\240\221w\376\326?\000\000\000\000\000\200\341?\371\262A\223/\033\344?\006\245\302\304\373\221\323?\\\217\302\365(\\\337?D:o1\244\363\266?\003\375\320A\nX\276?\013\233\003\211V\330\254?\"5\301x+\373\254?e&\n\335\224T\347?\252\325j\265Z\255\326?Z\234\326l\237\250\256?\370\377\377\377\377\377\273?\351:Fq\256c\304?\231x?r\232\257\325?\n\327\243p=\n\267?a\271\247\021\226{\312?\013\361\024I3\270\307?\371\355RO\306o\307?\311\235\242\2053 \304?z\201h\332\303\237\337?\312d2\231L&\343?Ok\266OT\017\312?\000\000\000\000\000\000\331?\235\353\030\305\271\216\321?<\004n,\203R\341?\341z\024\256G\341\332?\226{\032a\271\247\261?\024\345XP\\\030\301?\251\'\343\267K=\271?\241\344N\321\302\031\340?40\2003\037e\333?+\026\213\305b\261\330?;\177\213\323\232\355\303?\000\000\000\000\000\000\304?[X\351\251\205\225\336?Y\006\245\302\304\373\301?\232\231\231\231\231\231\331?\226{\032a\271\247\301?u)\371o\226`\302?6\007\022\255\2609\300?\241\344N\321\302\031\300?KA\002jv\275\350?\251T*\225J\245\342?\304\227\033b@:\326?\374\377\377\377\377\377\307?\237ZX\351\251\205\325?O\363\265zv\010\334?333333\343?\265\372RA\253/\265?Y\036ods^\305?\227z2~\273\324\303?\251\t\306[\331\347\340?}\254\255\342\235\374\340?\315\345r\271\\.\327?X\341\313\r1 \275?\370\377\377\377\377\377\273?\2448\3271\212s\315?j\276V\317\016\201\313?333333\323?\016x\374\341\200\307\257?\275\303\272-\363\021\272?Zas \321\n\333?\002\241\344N\321\302\331?\2400\347q\351\333\337?H$\022\211D\"\341?;\177\213\323\232\355\303?\000\000\000\000\000\000\304?\300\333\017\t\274\375\300?\"pc\031\224\n\263?\232\231\231\231\231\231\331?\225{\032a\271\247\241?\333\316D9\026\024\267?\2619\220h\205\315\341?\000\000\000\000\000\000\360?\374t\357KF=\265?l6\233\315f\263\331?;\177\213\323\232\355\303?\000\000\000\000\000\000\341?\017\232|\331\240\311\307?\304\373\221\323|\255\336?{\024\256G\341z\264?\266\211\222]\233(\311?\374:z\356~\201\267?\251\'\343\267K=\271?\241\344N\321\302\031\260?z\264 \0015\273\316?Z,\026\213\305b\341?X\341\313\r1 \275?\377\377\377\377\377\177\344?\235\353\030\305\271\216\321?\351\242\213.\272\350\342?\000\000\000\000\000\000\000\000\2008\340\361\207\003\276?\302$f\3278}\275?\347@\242\0256\007\262?\002\241\344N\321\302\251?\023\013\253\021\351t\341?\013\207\303\341p8\334?X\341\313\r1 \275?\004\000\000\000\000\000\300? \022x\373!\201\347?\353\331!pc\031\324?\232\231\231\231\231\231\341?\316[\014\351\274\305\300?\237W\205x\212\244\271?H\264\302\346@\242\265?\"5\301x+\373\274?%\305;\371\301\234\347?e4\032\215F\243\321?\322\310;\177\213\323\312?\001\000\000\000\000\000\330?\240\311\227\r\232|\331?\330\352\331!pc\311?\366(\\\217\302\365\330?\016x\374\341\200\307\257?\027F\004\372\241\203\264?\347@\242\0256\007\322?E\013g@(\271\323?\310/\031\365T\356\326?\214\305b\261X,\326?\370rC\014H\307\322?\000\000\000\000\000\000\331?\353\030\305\271\216Q\314?\363\265zv\010\334\330?{\024\256G\341z\224?\322y\213!\235\267\270?\341\220\233\214\241\352\275?p\227z2~\273\324?\261.=\346\357\265\341?i;\222\203\322P\341?\031\215F\243\321h\344?]\234\326l\237\250\276?\374\377\377\377\377\377\307?|\331\240\311\227\r\332?Y\006\245\302\304\373\321?q=\n\327\243p\315?\2008\340\361\207\003\276?\003/\276\365\247\341\300?\273\324\223\361\333\245\316?\236\242\2053 \224\334?\314\234\307\245o\177\345?(\225J\245R\251\324?S&\301\256\302\227\273?\002\000\000\000\000\000\302?\240\311\227\r\232|\331?u\321E\027]t\321?ffffff\326?a\271\247\021\226{\272?\242\2700\"\320\017\275?\227z2~\273\324\323?\"5\301x+\373\334?)A\233+\254F\344?\007\004\002\201@ \340?\303\227\033b@:\306?\000\000\000\000\000\000\304?\035\2438\3271\212\343?\320\016\201\033\313\240\304?H\341z\024\256G\341?\265\372RA\253/\265?$i\006\367r\305\276?\013\233\003\211V\330\254?\"5\301x+\373\254?)A\233+\254F\344?\010\006\203\301`0\310?\324\203F\336\371[\314?\370\377\377\377\377\377\273?\300\333\017\t\274\375\320?Y\006\245\302\304\373\301?\\\217\302\365(\\\337?\017x\374\341\200\307\277?\024\345XP\\\030\301?H\264\302\346@\242\325?\331\347\220\232`\274\325?0N\260\263R\204\340?/\227\313\345r\271\334?@:\2262\tv\305?\376\377\377\377\377\377\317?\235\353\030\305\271\216\321?~\255\236\035\0027\326?\244p=\n\327\243\320?\226{\032a\271\247\261?\343\302\210@?t\300?\227z2~\273\324\323?\\\331\347\220\232`\354?\272H\247\013y\216\335?\212F\243\321h4\332?;\177\213\323\232\355\303?\374\377\377\377\377\377\307?\353\030\305\271\216Q\314?\353\331!pc\031\304?333333\323?D:o1\244\363\266?3Q\216\005\305\205\261?\224\361\333\245\236\214\337?4 \224\334)Z\350?\223fpM\3426\336?\004\205B\241P(\304?\253\007\215\274\363\267\350?\000\000\000\000\000\000\304?Vzja\245\247\306?7\226A\2510\361\336?\354Q\270\036\205\353\261?\323y\213!\235\267\250?\037\010[M-Z\273?\347@\242\0256\007\262?\"5\301x+\373\254?\032Kx\300\000\316\334?i4\032\215F\243\341?\271!\006\244c)\303?\376\377\377\377\377\377\325?\370C\002o?$\340?\231x?r\232\257\325?\270\036\205\353Q\270\336?\361\370\303\001\217?\274?y\212\244\031\334\313\265?\347@\242\0256\007\262?2\177\257\215X\227\276?\030\310\014\256I\334\346?\312d2\231L&\323?;\177\213\323\232\355\303?\004\000\000\000\000\000\300?\235\353\030\305\271\216\341?=;\004n,\203\322?\205\353Q\270\036\205\333?\265\372RA\253/\265?\013\212\013#\002\375\320?\371\355RO\306o\327?\362V\3669\244&\330?\037\325!6\360\031\343?i\265Z\255V\253\325?rZ\263}\242z\320?\002\000\000\000\000\000\327?5\371\262A\223/\333?\304\373\221\323|\255\316?\270\036\205\353Q\270\336?\352K\005\255\276T\320?\237W\205x\212\244\271?6\007\022\255\2609\300?\341\014\010%w\212\266?}\254\255\342\235\374\340?\215\307\343\361x<\336?\265f\373D\365\240\321?\377\377\377\377\377\177\342?\3301\212s\035\243\350?G\027]t\321E\307?\244p=\n\327\243\340?\355\332D\311\256M\304?4Q\216\005\305\205\301?\013\233\003\211V\330\314?=\346\357\265\021\353\322?\021\273\367%\243\236\352?\307\347\363\371|>\317?8\304\200t,e\322?\000\000\000\000\000\000\304?Z\351\251\205\225\236\332?<\004n,\203R\341?H\341z\024\256G\321?\316[\014\351\274\305\300?`\340\305\267\3764\274?p\227z2~\273\324?\311\235\242\2053 \324?l3\037e;\222\343?/\227\313\345r\271\334?Ok\266OT\017\312?\377\377\377\377\377\377\324?\305\271\216Q\234\353\330?\375\221\323|\255\236\315?\205\353Q\270\036\205\333?a\271\247\021\226{\272?\034\247\257\243\347\356\267?\251\'\343\267K=\331?\241\344N\321\302\031\320?CJ\252Cl\340\323?\315\345r\271\\.\327?\276\334\020\003\322\261\304?\377\377\377\377\377\177\342?\237ZX\351\251\205\305?\206\211\367#\247\371\332?\037\205\353Q\270\036\325?\016x\374\341\200\307\257?\367\331\316D9\026\264?Zas \321\n\313?\261.=\346\357\265\301?\001\352B\236c\237\330?\316\347\363\371|>\337?\310R&\301\256\302\307?\376\377\377\377\377\377\317?Z\351\251\205\225\236\332?\006\245\302\304\373\221\323?\n\327\243p=\n\327?\357\370\303\001\217?\254?\302$f\3278}\275?\013\233\003\211V\330\234?\002\241\344N\321\302\251?\355\216\344\2404T\340?\255V\253\325j\265\332?\364\2678\255\331>\321?\001\000\000\000\000\000\330?~\331\240\311\227\r\312?~\255\236\035\0027\326?{\024\256G\341z\244?^\233(\331\265\211\302?@t\220\002\226\307\273?H\264\302\346@\242\265?\251\t\306[\331\347\300?)A\233+\254F\344?\374\375~\277\337\357\347?\304\227\033b@:\326?\002\000\000\000\000\000\302?[X\351\251\205\225\316?b\342\375\310i\276\326?\270\036\205\353Q\270\236?\323y\213!\235\267\250?\237W\205x\212\244\271?\013\233\003\211V\330\314?\"5\301x+\373\314?N\025\210\246=\374\331?\361\367\373\375~\277\337?D\365\240\221w\376\266?\000\000\000\000\000\000\264?{ja\245\247\026\346?\016\201\033\313\240T\310?\\\217\302\365(\\\337?\2008\340\361\207\003\276?\201L\373lg\242\274?\371\355RO\306o\327?~\016\251\t\306[\331?5\013\022P\263\353\345?\312d2\231L&\323?\260\253\360\345\206\030\320?\001\000\000\000\000\000\323?\020\t\274\375\220\300\333?Y\006\245\302\304\373\321?\\\217\302\365(\\\337?\nZ}\251\240\325\327?\232\366\331\316D9\266?\013\233\003\211V\330\254?\261.=\346\357\265\261?O\360\031\303\321\202\344?\353\365z\275^\257\327?\\\234\326l\237\250\316?\000\000\000\000\000\000\331?\215\342\\\307(\316\345?\217eP*L\274\277?\\\217\302\365(\\\337?&\2736Q\262k\303?\201L\373lg\242\274?\321\n\233\003\211V\330?\241\344N\321\302\031\320?\017\\\223\270\215\257\345?\315\345r\271\\.\327?w\025\276\334\020\003\322?\376\377\377\377\377\377\320?\353\030\305\271\216Q\314?\030]t\321E\027\335?\000\000\000\000\000\000\000\000\322y\213!\235\267\270?\003\375\320A\nX\276?\273\324\223\361\333\245\316?\251\t\306[\331\347\300?|y\365\273,\341\341?i4\032\215F\243\341?\261\253\360\345\206\030\300?\002\000\000\000\000\000\302?\2448\3271\212s\335?\353\331!pc\031\324?\\\217\302\365(\\\337?\2008\340\361\207\003\276?\215\241\352\035\326m\331?\013\233\003\211V\330\254?\341\014\010%w\212\266?\234N\027\362\034\373\344?/\227\313\345r\271\334?\265f\373D\365\240\321?\376\377\377\377\377\377\325?\305\271\216Q\234\353\330?j\276V\317\016\201\313?=\n\327\243p=\332?a\271\247\021\226{\272?\306\267\3764\034r\303?\347@\242\0256\007\262?\002\241\344N\321\302\231?\rNIu\210\r\334?\347t:\235N\247\323?\271!\006\244c)\303?\000\000\000\000\000\000\341?\300\333\017\t\274\375\340?\216eP*L\274\317?\270\036\205\353Q\270\336?\017x\374\341\200\307\277?\272b\017\204\255\246\266?\013\233\003\211V\330\254?\301x+\373\034R\263?V\375.Kx\300\340?\353\365z\275^\257\327?\277\334\020\003\322\261\324?\002\000\000\000\000\000\334?Vzja\245\247\306?\016\201\033\313\240T\330?\000\000\000\000\000\000\000\000D:o1\244\363\266?\226\225.%\377\315\302?\264\302\346@\242\025\346?e\237Cj\202\361\326?\256\027Y[\305;\331?Z\255V\253\325j\345?\322\310;\177\213\323\312?\001\000\000\000\000\000\335?\304JO-\254\364\324?~\255\236\035\0027\306?\341z\024\256G\341\332?\322y\213!\235\267\270?]\177\032\016\271\311\270?\013\233\003\211V\330\274?\341\014\010%w\212\266?I\213\3360N\260\323?\007\004\002\201@ \340?3\tv\025\276\334\320?\377\377\377\377\377\377\344?\370C\002o?$\340?\220\234\346k\365\354\320?\000\000\000\000\000\000\340?\016x\374\341\200\307\317?\007\220i\237\355L\304?\013\233\003\211V\330\254?\341\014\010%w\212\246?\323v$\007\245\241\342?\312f\263\331l6\333?\271!\006\244c)\323?\000\000\000\000\000\000\336?\305\271\216Q\234\353\330?Y\006\245\302\304\373\321?q=\n\327\243p\315?\316[\014\351\274\305\300?\024\345XP\\\030\301?\321\n\233\003\211V\330?E\013g@(\271\343?F\204\240\315\025V\343?\211D\"\221H$\322?\266f\373D\365\240\301?\370\377\377\377\377\377\273?y\373!\201\267\037\302?G\027]t\321E\327?\n\327\243p=\n\267?\357\370\303\001\217?\254?3Q\216\005\305\205\261?p\227z2~\273\324?\321\302\031\020J\356\304?#\017\030\300\231\217\322?\013\205B\241P(\344?\276\334\020\003\322\261\304?\002\000\000\000\000\000\334?x\373!\201\267\037\322?G\027]t\321E\327?R\270\036\205\353Q\310?&\2736Q\262k\263?\302$f\3278}\275?\013\233\003\211V\330\314?M0\336\312>\207\344?\032Kx\300\000\316\334?L\247\323\351t:\335?\261\253\360\345\206\030\300?\000\000\000\000\000\000\304?\353\030\305\271\216Q\314?4(\025&\336\217\334?\000\000\000\000\000\000\000\000a\271\247\021\226{\312?cAqaD\240\277?\013\233\003\211V\330\314?:\244&\030oe\317?9\272)\251\016\261\341?\211D\"\221H$\342?\261\253\360\345\206\030\300?\000\000\000\000\000\000\304?\345\313\006M\276l\320?\274\0379\315\327\352\331?\232\231\231\231\231\231\311?\357\370\303\001\217?\254?\037\010[M-Z\273?\224\361\333\245\236\214\337?\331\347\220\232`\274\325?.@fpM\342\326?\211D\"\221H$\322?A:\2262\tv\245?\004\000\000\000\000\000\300?\303JO-\254\364\344?\353\331!pc\031\324?\341z\024\256G\341\342?\225{\032a\271\247\241?\275\303\272-\363\021\272?\227z2~\273\324\323?\"5\301x+\373\314?\323v$\007\245\241\342?\203D\"\221H$\302?\322\310;\177\213\323\312?\000\000\000\000\000\000\324?\346:Fq\256c\324?u\321E\027]t\341?\000\000\000\000\000\000\000\000D:o1\244\363\266?\343\302\210@?t\300?H\264\302\346@\242\305?\241\344N\321\302\031\300?\206\030\'\330Y)\342?\361\367\373\375~\277\337?<\177\213\323\232\355\263?\376\377\377\377\377\377\305?\305\271\216Q\234\353\310?\363\265zv\010\334\330?\270\036\205\353Q\270\256?_*h\365\245\202\326?\027F\004\372\241\203\264?\347@\242\0256\007\302?\301x+\373\034R\263?\032Kx\300\000\316\334?:\034\016\207\303\341\340?;\177\213\323\232\355\303?\002\000\000\000\000\000\327?U\013+=\265\260\322?\253g\207\300\215e\320?\341z\024\256G\341\312?\323y\213!\235\267\250?\367\331\316D9\026\304?6\007\022\255\2609\300?\372{m\304\272\364\310?\340\304m|-\257\336?i\265Z\255V\253\325?\304\227\033b@:\326?\000\000\000\000\000\000\304?5\371\262A\223/\313?\353\331!pc\031\324?\000\000\000\000\000\000\320?&\2736Q\262k\263?]\177\032\016\271\311\270?\013\233\003\211V\330\234?\002\241\344N\321\302\271?g\251u\357KF\335?l6\233\315f\263\331?E\365\240\221w\376\306?\370\377\377\377\377\377\273?1\212s\035\2438\327?\340\3062(\025&\336?\327\243p=\n\327\323?^\233(\331\265\211\302?cAqaD\240\277?\227z2~\273\324\323?\256\354sHM0\336?\262\204\007\014\340\314\347?\251T*\225J\245\342?\336\371[\234\326l\317?\377\377\377\377\377\377\336?\240\311\227\r\232|\331?\"pc\031\224\n\303?\303\365(\\\217\302\325?&\2736Q\262k\263?\232\366\331\316D9\266?\227z2~\273\324\303?2\177\257\215X\227\276?\216\334\306\327\362\352\327?\212F\243\321h4\332?{\320\310;\177\213\323?\376\377\377\377\377\377\337?\256c\024\347:F\341?\016\201\033\313\240T\310?\366(\\\217\302\365\340?\2008\340\361\207\003\276?]\177\032\016\271\311\270?\013\233\003\211V\330\254?\241\344N\321\302\031\260?V\375.Kx\300\340?(\225J\245R\251\324?J\260\253\360\345\206\310?\000\000\000\000\000\000\331?Vzja\245\247\306?\227A\2510\361~\344?{\024\256G\341z\244?\322y\213!\235\267\270?\034\247\257\243\347\356\267?H\264\302\346@\242\265?\341\014\010%w\212\246?\256\261\350\r\343\004\333?\371|>\237\317\347\343?\271!\006\244c)\303?\002\000\000\000\000\000\327?\345\313\006M\276l\340?\264C\340\3062(\325?\315\314\314\314\314\314\334?&\2736Q\262k\263?\242\2700\"\320\017\275?\347@\242\0256\007\262?\341\014\010%w\212\246?\334H\016JC\005\342?\016\006\203\301`0\330?rZ\263}\242z\320?\001\000\000\000\000\000\335?\021x\373!\201\267\337?\216eP*L\274\317?=\n\327\243p=\342?|\032a\271\247\021\306?]\177\032\016\271\311\270?H\264\302\346@\242\245?\002\241\344N\321\302\231?0N\260\263R\204\340?\215\307\343\361x<\316?E\365\240\221w\376\306?\376\377\377\377\377\377\305?\013+=\265\260\322\323?=;\004n,\203\342?\000\000\000\000\000\000\000\000\357\370\303\001\217?\314?D\007)`y\274\301?\013\233\003\211V\330\254?\002\241\344N\321\302\251?Y\302\003\006p\346\343?\316\347\363\371|>\337?]\234\326l\237\250\276?\376\377\377\377\377\377\305?\353\030\305\271\216Q\314?4(\025&\336\217\314?\270\036\205\353Q\270\276?\265\372RA\253/\265?\272b\017\204\255\246\266?\371\355RO\306o\307?\"5\301x+\373\274?\374\016\177\376c\006\307?\013\207\303\341p8\334?]\234\326l\237\250\276?\001\000\000\000\000\000\350?U\013+=\265\260\322?\340\3062(\025&\336?\341z\024\256G\341\312?\265\372RA\253/\265?\242\2700\"\320\017\275?\013\233\003\211V\330\334?\320!5\301x+\353?\032Kx\300\000\316\334?l6\233\315f\263\331?S&\301\256\302\227\273?\002\000\000\000\000\000\314?\2448\3271\212s\315?*L\274\0379\315\327?\270\036\205\353Q\270\256?\323y\213!\235\267\250?\037\010[M-Z\273?\013\233\003\211V\330\274?\251\t\306[\331\347\300?V\375.Kx\300\340?\316\347\363\371|>\337?\324\203F\336\371[\314?\376\377\377\377\377\377\305?y\373!\201\267\037\302?\320\016\201\033\313\240\324?\354Q\270\036\205\353\301?\226{\032a\271\247\261?\225\225.%\377\315\262?\251\'\343\267K=\311?\341\014\010%w\212\306?\320o\346\243lG\322?\251T*\225J\245\342?6\304\200t,e\302?\000\000\000\000\000\000\336?Vzja\245\247\346?\353\331!pc\031\304?\n\327\243p=\n\347?D:o1\244\363\266?\237W\205x\212\244\271?\347@\242\0256\007\262?\271S\264p\006\204\302?)A\233+\254F\344?\377\206\303\341p8\274?\370rC\014H\307\322?\004\000\000\000\000\000\312?\024x\373!\201\267\317?\370#\247\371Z=\333?\232\231\231\231\231\231\271?a\271\247\021\226{\272?\242\2700\"\320\017\275?Zas \321\n\313?\331\347\220\232`\274\305?&|\306p\264 \341?L\245R\251T*\345?R&\301\256\302\227\313?\002\000\000\000\000\000\327?x\373!\201\267\037\322?G\027]t\321E\327?R\270\036\205\353Q\310?\016x\374\341\200\307\257?\326m\231\217\320\250\303?\227z2~\273\324\303?%w\212\026\316\200\320?\264\007s\036\227\276\335?\252\325j\265Z\255\326?F\365\240\221w\376\326?\000\000\000\000\000\000\304?h\362e\203&_\346?\221\234\346k\365\354\300?H\341z\024\256G\341?\322y\213!\235\267\270?\341\220\233\214\241\352\275?\227z2~\273\324\303?\271S\264p\006\204\302?\362\030\216\026$\240\346?\246T*\225J\245\322?\334\'\252\007\215\274\343?\004\000\000\000\000\000\312?5\371\262A\223/\313?j\276V\317\016\201\333?{\024\256G\341z\224?\265\372RA\253/\265?\374:z\356~\201\267?\013\233\003\211V\330\274?\022\353\322c\376^\273?\n\2371\034-H\340?\233L&\223\311d\342?Ok\266OT\017\312?\002\000\000\000\000\000\302?\345\313\006M\276l\320?\330\352\331!pc\331?\270\036\205\353Q\270\236?\016x\374\341\200\307\257?D\007)`y\274\301?H\264\302\346@\242\325?\373\034R\023\214\267\342?\357\336\227\214z*\327?\261\327\353\365z\275\336?\261\253\360\345\206\030\300?\376\377\377\377\377\377\317?\303JO-\254\364\344?\221\234\346k\365\354\300?\\\217\302\365(\\\337?\226{\032a\271\247\261?\340/\360\342[\177\272?6\007\022\255\2609\300?\362V\3669\244&\270?9\272)\251\016\261\341?\010\006\203\301`0\310?\315\r1 \035K\311?\002\000\000\000\000\000\314?\013+=\265\260\322\323?\030]t\321E\027\335?\232\231\231\231\231\231\341?\016x\374\341\200\307\257?\252\254t)\371o\306?2~\273\324\223\361\333?\320!5\301x+\353?z\201h\332\303\237\337?i\265Z\255V\253\325?\303\227\033b@:\306?\002\000\000\000\000\000\302?\256c\024\347:F\341?\030]t\321E\027\335?)\\\217\302\365(\314?\017x\374\341\200\307\277?\007\220i\237\355L\304?\013\233\003\211V\330\314?\341\014\010%w\212\306?\376\342\004;+E\350?\312f\263\331l6\333?\n_n\210\001\351\330?\002\000\000\000\000\000\314?\177H\340\355\207\004\336?\353\331!pc\031\324?\270\036\205\353Q\270\316?\322y\213!\235\267\270?\306\267\3764\034r\303?\347@\242\0256\007\262?\002\241\344N\321\302\251?\206\030\'\330Y)\342?\215\307\343\361x<\336?X\341\313\r1 \275?\000\000\000\000\000\000\316?\305\271\216Q\234\353\310?\320\016\201\033\313\240\324?{\024\256G\341z\204?\265\372RA\253/\265?\340/\360\342[\177\272?\013\233\003\211V\330\274?2\177\257\215X\227\276?\347\321\202\004\324\354\332?p\267\333\355v\273\335?\266f\373D\365\240\301?\000\000\000\000\000\000\304?\345\313\006M\276l\320?j\276V\317\016\201\313?=\n\327\243p=\342?\322y\213!\235\267\270?\367\331\316D9\026\304?\013\233\003\211V\330\254?\301x+\373\034R\243?\247=\374\371\217\031\334?\316\347\363\371|>\337?3\tv\025\276\334\300?\001\000\000\000\000\000\335?\2448\3271\212s\315?\304\373\221\323|\255\316?333333\323?\265\372RA\253/\265?\003\375\320A\nX\276?\273\324\223\361\333\245\336?\n\306[\331\347\220\332?\n\2371\034-H\340?i4\032\215F\243\341?X\341\313\r1 \275?\002\000\000\000\000\000\302?\346:Fq\256c\324?\221\234\346k\365\354\300?\232\231\231\231\231\231\331?a\271\247\021\226{\272?\024\345XP\\\030\261?H\264\302\346@\242\245?\002\241\344N\321\302\231?\235\366\360\347?f\320?p\267\333\355v\273\335?\324\203F\336\371[\314?\001\000\000\000\000\200\345?\300\333\017\t\274\375\340?\"pc\031\224\n\323?{\024\256G\341z\344?D:o1\244\363\266?Hh\324\t\277\'\305?\347@\242\0256\007\262?\341\014\010%w\212\266?\n\2371\034-H\340?\212F\243\321h4\332?\315\r1 \035K\311?\376\377\377\377\377\377\337?\300\333\017\t\274\375\320?\246\302\304\373\221\323\334?\232\231\231\231\231\231\271?\264\372RA\253/\245?\333\316D9\026\024\267?\371\355RO\306o\327?E\013g@(\271\323?\272\025\357\344\007s\336?\031\014\006\203\301`\340?S&\301\256\302\227\273?\004\000\000\000\000\000\300?\237ZX\351\251\205\305?\231x?r\232\257\325?\270\036\205\353Q\270\256?&\2736Q\262k\263?y\212\244\031\334\313\265?\251\'\343\267K=\331?2\177\257\215X\227\316?\010\221\347\330\'\246\326?\007\004\002\201@ \340?\271!\006\244c)\323?\002\000\000\000\000\000\322?Z\351\251\205\225\236\332?\033\313\240T\230x\337?\270\036\205\353Q\270\316?\265\372RA\253/\265?]\177\032\016\271\311\270?\013\233\003\211V\330\254?\341\014\010%w\212\266?\340\304m|-\257\336?\312d2\231L&\323?;\177\213\323\232\355\303?\002\000\000\000\000\000\314?~\331\240\311\227\r\312?G\027]t\321E\327?\270\036\205\353Q\270\236?\264\372RA\253/\245?cAqaD\240\277?\224\361\333\245\236\214\337?\241\344N\321\302\031\320?N{\370\363\0373\330?\371|>\237\317\347\343?6\304\200t,e\302?\377\377\377\377\377\377\324?\300\333\017\t\274\375\320?4(\025&\336\217\314?\327\243p=\n\327\323?\322y\213!\235\267\270?\341\220\233\214\241\352\275?\227z2~\273\324\323?\2063 \224\334)\332?\037\325!6\360\031\343?\352t:\235N\247\343?J\260\253\360\345\206\310?\374\377\377\377\377\377\307?\177H\340\355\207\004\336?~\255\236\035\0027\326?\315\314\314\314\314\314\334?\322y\213!\235\267\270?|\353O\303!7\271?Zas \321\n\313?\022\353\322c\376^\313?\302\375\225\211B7\345?\031\014\006\203\301`\340?\303\227\033b@:\306?\002\000\000\000\000\000\302?\177H\340\355\207\004\336?~\255\236\035\0027\326?\315\314\314\314\314\314\334?\322y\213!\235\267\270?|\353O\303!7\271?Zas \321\n\313?\022\353\322c\376^\313?\302\375\225\211B7\345?\031\014\006\203\301`\340?\303\227\033b@:\306?\002\000\000\000\000\000\302?\017\232|\331\240\311\327?o,\203Ra\342\335?\244p=\n\327\243\320?\323y\213!\235\267\250?\323\014\356\345\212=\300?Zas \321\n\313?\022\353\322c\376^\273?\251\317\030\216\026$\340?L\247\323\351t:\335??:\2262\tv\265?\002\000\000\000\000\000\302?h\362e\203&_\346?Y\006\245\302\304\373\321?)\\\217\302\365(\344?&\2736Q\262k\263?|\353O\303!7\271?\347@\242\0256\007\262?\"5\301x+\373\254?O\360\031\303\321\202\344?O&\223\311d2\311?\277\334\020\003\322\261\324?\376\377\377\377\377\377\320?\2448\3271\212s\315?\006\245\302\304\373\221\323?\n\327\243p=\n\307?\017x\374\341\200\307\277?=\023\345XP\\\270?H\264\302\346@\242\305?\341\014\010%w\212\306?-#k\253x\'\337?\356v\273\335n\267\333?D\365\240\221w\376\266?\370\377\377\377\377\377\273?\237ZX\351\251\205\325?Y\006\245\302\304\373\301?\232\231\231\231\231\231\331?\357\370\303\001\217?\254?\374:z\356~\201\267?\251\'\343\267K=\271?\341\014\010%w\212\266?\341]\226\360\200\001\334?\031\014\006\203\301`\340?\276\334\020\003\322\261\304?\000\000\000\000\000\000\324?6h\362e\203&\337?\241T\230x?r\312?\303\365(\\\217\302\325?a\271\247\021\226{\272?E\325;\254\3332\277?\013\233\003\211V\330\254?\261.=\346\357\265\261?\332P\201h\332\303\337?i\265Z\255V\253\325?J\260\253\360\345\206\310?\377\377\377\377\377\377\324?\235\353\030\305\271\216\321?\036\0027\226A\251\340?H\341z\024\256G\321?\231\231\231\231\231\231\311?8\2629\257\n\361\304?\343\267K=\031\277\335?g@(\271S\264\340?\332\2039\217K\337\336?O&\223\311d2\331?7\304\200t,e\262?\004\000\000\000\000\000\300?\212s\035\2438\327\341?\264C\340\3062(\305?\244p=\n\327\243\340?\016x\374\341\200\307\257?\236W\205x\212\244\311?\013\233\003\211V\330\314?2\177\257\215X\227\316?C\214\023\354\254\024\341?\312f\263\331l6\333?3\tv\025\276\334\320?\000\000\000\000\000\000\336?\306(\316u\214\342\334?\353\331!pc\031\304?\024\256G\341z\024\336?\323y\213!\235\267\250?Y\036ods^\265?H\264\302\346@\242\305?\331\347\220\232`\274\305?F\204\240\315\025V\343?\255V\253\325j\265\332?\315\r1 \035K\311?\000\000\000\000\000\000\316?\351:Fq\256c\304?j\276V\317\016\201\333?\341z\024\256G\341\312?\016x\374\341\200\307\257?\302$f\3278}\275?\371\355RO\306o\307?\311\235\242\2053 \304?\026xY\302\003\006\340?Z\255V\253\325j\345?\315\r1 \035K\311?\004\000\000\000\000\000\312?[X\351\251\205\225\316?\"pc\031\224\n\323?{\024\256G\341z\324?\265\372RA\253/\265?Y\036ods^\265?Zas \321\n\333?\301x+\373\034R\323?\343\274\372]\226\360\340?\013\207\303\341p8\334?J\260\253\360\345\206\310?\000\000\000\000\000\000\316?\260\322S\013+=\345?\375\221\323|\255\236\315?\244p=\n\327\243\340?&\2736Q\262k\263?\024\345XP\\\030\301?\251\'\343\267K=\311?\301x+\373\034R\323?e&\n\335\224T\347?F\247\323\351t:\315?\315\r1 \035K\311?\376\377\377\377\377\377\320?Z\351\251\205\225\236\332?\304\373\221\323|\255\316?\366(\\\217\302\365\330?D:o1\244\363\266?\232\366\331\316D9\266?\227z2~\273\324\303?\311\235\242\2053 \304?l3\037e;\222\343?\212F\243\321h4\332?J\260\253\360\345\206\310?\376\377\377\377\377\377\320?\2448\3271\212s\315?*L\274\0379\315\327?\232\231\231\231\231\231\251?\322y\213!\235\267\270?\302$f\3278}\275?Zas \321\n\313?\362V\3669\244&\310?H\324S\271[,\332?\007\004\002\201@ \340?\276\334\020\003\322\261\304?\002\000\000\000\000\000\322?Z\351\251\205\225\236\332?\"pc\031\224\n\323?\217\302\365(\\\217\322?\265\372RA\253/\265?L\311\177\263\004\223\310?\347@\242\0256\007\262?\241\344N\321\302\031\260?z\201h\332\303\237\337?\016\006\203\301`0\330?\331>Q=h\344\315?\376\377\377\377\377\377\332?Vzja\245\247\266?\224\n\023\357GN\343?\232\231\231\231\231\231\251?\225{\032a\271\247\241?`\340\305\267\3764\254?\227z2~\273\324\303?%w\212\026\316\200\340?\326\222\270\215\257\345\305?+\225J\245R\251\344?\370rC\014H\307\322?\000\000\000\000\000\000\346?\300\333\017\t\274\375\320?\347k\365\354\020\270\341?\341z\024\256G\341\312?\322y\213!\235\267\270?\302VS\213\326\006\300?\347@\242\0256\007\322?\372{m\304\272\364\330?\001\267\212w\362\203\331?\312d2\231L&\323?2\tv\025\276\334\260?\370\377\377\377\377\377\273?\353\030\305\271\216Q\314?\241T\230x?r\332?\270\036\205\353Q\270\256?\361\370\303\001\217?\234?]\177\032\016\271\311\270?\013\233\003\211V\330\254?\301x+\373\034R\243?\366\353\254\024!h\323?i\265Z\255V\253\325?D\365\240\221w\376\266?\004\000\000\000\000\000\312?\237ZX\351\251\205\325?\370#\247\371Z=\333?\n\327\243p=\n\327?&\2736Q\262k\263?\343\302\210@?t\300?\251\'\343\267K=\311?E\013g@(\271\323?6\263\353E\326V\341?/\227\313\345r\271\334?6\304\200t,e\302?\001\000\000\000\000\000\323?\345\313\006M\276l\320?\253g\207\300\215e\320?333333\323?D:o1\244\363\266?Y\036ods^\265?\347@\242\0256\007\262?\301x+\373\034R\243?\310/\031\365T\356\326?i4\032\215F\243\341?\331>Q=h\344\315?\000\000\000\000\000\000\336?[X\351\251\205\225\336?\264C\340\3062(\305?\341z\024\256G\341\342?D:o1\244\363\266?@t\220\002\226\307\273?\013\233\003\211V\330\234?\"5\301x+\373\254?5\013\022P\263\353\345?\315\345r\271\\.\327?\364\2678\255\331>\321?\376\377\377\377\377\377\305?0\0334\371\262A\323?\241T\230x?r\332?\037\205\353Q\270\036\325?\017x\374\341\200\307\277?\323\014\356\345\212=\300?Zas \321\n\313?\372{m\304\272\364\310?V\375.Kx\300\340?/\227\313\345r\271\334?\271!\006\244c)\303?\376\377\377\377\377\377\325?5\371\262A\223/\333?\"pc\031\224\n\303?\354Q\270\036\205\353\341?\316[\014\351\274\305\300?\242\2700\"\320\017\275?\347@\242\0256\007\262?\261.=\346\357\265\261?\264\007s\036\227\276\335?(\225J\245R\251\324?\205F\336\371[\234\326?\376\377\377\377\377\377\337?\2448\3271\212s\315?~\255\236\035\0027\306?\037\205\353Q\270\036\325?\357\370\303\001\217?\254?8\2629\257\n\361\264?\013\233\003\211V\330\234?\341\014\010%w\212\246?\201\216}bj\335\333?+\026\213\305b\261\330?\031\220\216\245L\202\335?\000\000\000\000\000\000\316?\351:Fq\256c\304?\375\221\323|\255\236\315?q=\n\327\243p\315?\323y\213!\235\267\250?\333\316D9\026\024\267?\013\233\003\211V\330\254?\301x+\373\034R\243?\347\321\202\004\324\354\332?\215\307\343\361x<\336?\266f\373D\365\240\301?\370\377\377\377\377\377\273?\2448\3271\212s\315?Ra\342\375\310i\336?\244p=\n\327\243\300?&\2736Q\262k\263?\037\010[M-Z\273?\227z2~\273\324\303?\341\014\010%w\212\266?t\367\276d\324S\331?\356v\273\335n\267\333?\261\253\360\345\206\030\300?\376\377\377\377\377\377\317?\304JO-\254\364\324?\033\313\240T\230x\337?333333\303?\016x\374\341\200\307\257?\343\302\210@?t\300?6\007\022\255\2609\300?\271S\264p\006\204\322?z\201h\332\303\237\337?+\026\213\305b\261\330?3\tv\025\276\334\320?\000\000\000\000\000\000\304?\2478\3271\212s\275?\274\0379\315\327\352\331?{\024\256G\341z\264?\265\372RA\253/\265?|\353O\303!7\271?Zas \321\n\313?\"5\301x+\373\274?6\263\353E\326V\321?+\225J\245R\251\344?3\tv\025\276\334\320?\377\377\377\377\377\377\331?\020\t\274\375\220\300\333?\363\265zv\010\334\330?)\\\217\302\365(\334?\322y\213!\235\267\270?|\353O\303!7\271?\347@\242\0256\007\322?\372{m\304\272\364\330?\351\254\024!hs\345?\211D\"\221H$\342?E\365\240\221w\376\306?\000\000\000\000\000\000\304?|\331\240\311\227\r\332?\253g\207\300\215e\320?\\\217\302\365(\\\337?a\271\247\021\226{\272?cAqaD\240\277?\227z2~\273\324\323?]z\314\337k#\346?9\272)\251\016\261\341?+\026\213\305b\261\330?\310R&\301\256\302\307?\000\000\000\000\000\000\304?[X\351\251\205\225\316?j\276V\317\016\201\313?\341z\024\256G\341\312?&\2736Q\262k\263?\242\2700\"\320\017\275?H\264\302\346@\242\265?\3511\177\257\215X\307?\316\354z\221\265U\334?p\267\333\355v\273\335??:\2262\tv\265?\000\000\000\000\000\000\304?U\013+=\265\260\322?\353\331!pc\031\304?{\024\256G\341z\324?\226{\032a\271\247\261?\333\316D9\026\024\267?\371\355RO\306o\307?\362V\3669\244&\310?#u\210\r|\306\320?:\034\016\207\303\341\340?\266f\373D\365\240\301?\377\377\377\377\377\177\344?\300\333\017\t\274\375\340?+L\274\0379\315\347?\205\353Q\270\036\205\333?\226{\032a\271\247\301?\037\010[M-Z\273? \321\n\233\003\211\326?%w\212\026\316\200\340?l3\037e;\222\343?H$\022\211D\"\321?6\304\200t,e\302?\376\377\377\377\377\377\317?\237ZX\351\251\205\305?\264C\340\3062(\325?)\\\217\302\365(\274?\016x\374\341\200\307\257?\275\303\272-\363\021\272?H\264\302\346@\242\305?\002\241\344N\321\302\311?\001\267\212w\362\203\331?\215\307\343\361x<\336?X\341\313\r1 \275?\004\000\000\000\000\000\300?\017\232|\331\240\311\307?\241T\230x?r\332?\341z\024\256G\341\312?\226{\032a\271\247\261?\201L\373lg\242\274?\251\'\343\267K=\271?\341\014\010%w\212\326?\n\2371\034-H\340?\352t:\235N\247\343?\271!\006\244c)\303?\004\000\000\000\000\000\300?\235\353\030\305\271\216\321?\033\313\240T\230x\337?{\024\256G\341z\204?\265\372RA\253/\265?\232\366\331\316D9\266?Zas \321\n\333?*Z8\003B\311\315?\020\004m\256\260\032\321?:\034\016\207\303\341\340?6\304\200t,e\302?\001\000\000\000\000\200\340?U\013+=\265\260\322?\006\245\302\304\373\221\323?{\024\256G\341z\324?\226{\032a\271\247\261?\341\220\233\214\241\352\275?\013\233\003\211V\330\314?\226}\016\251\t\306\353?z\201h\332\303\237\337?\315\345r\271\\.\327?3\tv\025\276\334\300?\000\000\000\000\000\000\304?|\373!\201\267\037\262?\253g\207\300\215e\340?\n\327\243p=\n\267?\357\370\303\001\217?\254?\343\302\210@?t\300?Zas \321\n\313?\241\344N\321\302\031\300?#\017\030\300\231\217\322?\334\355v\273\335n\347?\266f\373D\365\240\301?\377\377\377\377\377\377\336?\240\311\227\r\232|\331?Y\006\245\302\304\373\301?\037\205\353Q\270\036\325?\354\332D\311\256M\264?y\212\244\031\334\313\265?H\264\302\346@\242\305?\251\t\306[\331\347\300?\216\334\306\327\362\352\327?\212F\243\321h4\332?{\320\310;\177\213\323?\376\377\377\377\377\377\337?x\373!\201\267\037\342?\"pc\031\224\n\303?\217\302\365(\\\217\342?\265\372RA\253/\265?V\275\303\272-\363\261?H\264\302\346@\242\265?\321\302\031\020J\356\264?\323v$\007\245\241\342?/\227\313\345r\271\334?\200\213\323\232\355\023\325?\000\000\000\000\000\000\324?\013+=\265\260\322\343?G\027]t\321E\267?=\n\327\243p=\342?\016x\374\341\200\307\257?\340/\360\342[\177\272?\013\233\003\211V\330\234?\002\241\344N\321\302\211?\371%\243\236\312\335\342?\013\205B\241P(\324?\324\203F\336\371[\314?\002\000\000\000\000\000\314?\020\t\274\375\220\300\333?\006\245\302\304\373\221\343?\244p=\n\327\243\320?\226{\032a\271\247\261?\201L\373lg\242\274?H\264\302\346@\242\305?\261.=\346\357\265\301?\023>c8Z\220\340?l6\233\315f\263\331?\303\227\033b@:\306?\000\000\000\000\000\000\316?\370C\002o?$\340?\217eP*L\274\277?\270\036\205\353Q\270\316?\265\372RA\253/\265?\237W\205x\212\244\271?\251\'\343\267K=\311?\331\347\220\232`\274\305?N\025\210\246=\374\331?\016\006\203\301`0\330?\315\r1 \035K\311?\001\000\000\000\000\200\345?\235\353\030\305\271\216\341?Y\006\245\302\304\373\301?\341z\024\256G\341\332?\323y\213!\235\267\250?$i\006\367r\305\276?6\007\022\255\2609\320?\251\t\306[\331\347\300?H\007\014\340\314G\331?\312f\263\331l6\333?\\\234\326l\237\250\316?\000\000\000\000\000\000\341?\017\232|\331\240\311\307?~\255\236\035\0027\326?\244p=\n\327\243\300?&\2736Q\262k\263?\037\010[M-Z\273?\251\'\343\267K=\311?\362V\3669\244&\310?}\254\255\342\235\374\340?{\275^\257\327\353\345?\310R&\301\256\302\307?\004\000\000\000\000\000\312?\235\353\030\305\271\216\321?\246\302\304\373\221\323\334?\000\000\000\000\000\000\000\000a\271\247\021\226{\272?\363x#\233\363\252\300?\251\'\343\267K=\271?\321\302\031\020J\356\264?\243[,z\3038\341?\255V\253\325j\265\332?\\\234\326l\237\250\316?\004\000\000\000\000\000\300?\024x\373!\201\267\277?\216eP*L\274\317?R\270\036\205\353Q\310?&\2736Q\262k\263?\377\233%\230\304\354\272?\277]\352\311\370\355\322?%w\212\026\316\200\320?N{\370\363\0373\330?\031\014\006\203\301`\340?\364\2678\255\331>\321?\000\000\000\000\000\000\316?\263A\223/\0334\351?\231x?r\232\257\325?H\341z\024\256G\351?\262k\023%\2736\321?\332\316D9\026\024\307?\227z2~\273\324\323?\236\242\2053 \224\334?\252w\362\2039\217\353?\214\305b\261X,\326?3\tv\025\276\334\320?\000\000\000\000\000\200\346?\305\271\216Q\234\353\310?\340\3062(\025&\336?\000\000\000\000\000\000\000\000\317\352K\005\255\276\324?\033\247\257\243\347\356\307?\347@\242\0256\007\322?\321\302\031\020J\356\324?\362\030\216\026$\240\346?\211D\"\221H$\342?\331>Q=h\344\315?\376\377\377\377\377\377\320?5\371\262A\223/\313?~\255\236\035\0027\326?\n\327\243p=\n\267?&\2736Q\262k\263?\302$f\3278}\275?6\007\022\255\2609\300?\241\344N\321\302\031\260?(2\352\251\334-\326?Z,\026\213\305b\341?;\177\213\323\232\355\303?\000\000\000\000\000\000\336?\235\353\030\305\271\216\321?\375\221\323|\255\236\275?333333\323?\357\370\303\001\217?\254?\367\331\316D9\026\264?\016$Zas \321?\002\241\344N\321\302\311?\242\200\232]/\262\326?\356v\273\335n\267\333??:\2262\tv\265?\002\000\000\000\000\000\327?\353\030\305\271\216Q\314?\253g\207\300\215e\320?\341z\024\256G\341\332?\354\332D\311\256M\324?]\177\032\016\271\311\270?\251\'\343\267K=\331?\270\262\317!5\301\350?}\254\255\342\235\374\340?H$\022\211D\"\341?\331>Q=h\344\315?\000\000\000\000\000\000\324?\305\271\216Q\234\353\310?B\2510\361~\344\344?\270\036\205\353Q\270\256?&\2736Q\262k\263?\027F\004\372\241\203\264?H\264\302\346@\242\245?\241\344N\321\302\031\240?\372\017\346<.}\333?\371|>\237\317\347\343?\310R&\301\256\302\307?\001\000\000\000\000\000\330?\345\313\006M\276l\320?7\226A\2510\361\336?\270\036\205\353Q\270\316?\016x\374\341\200\307\257?\205\337\223\312J\227\342?\251\'\343\267K=\311?e\237Cj\202\361\326?\264\007s\036\227\276\335?\212F\243\321h4\312?\211\001\351X\312$\350?\000\000\000\000\000\000\304?f\203&_6h\342?\353\331!pc\031\304?\\\217\302\365(\\\337?\017x\374\341\200\307\277?4Q\216\005\305\205\301?Zas \321\n\313?%w\212\026\316\200\320?\002\222\034\224\206\n\344?\312d2\231L&\323?\017\032y\347oq\332?\377\377\377\377\377\377\324?\300\333\017\t\274\375\300?\264C\340\3062(\305?\000\000\000\000\000\000\320?\322y\213!\235\267\270?|\353O\303!7\271?\227z2~\273\324\323?\321\302\031\020J\356\324?Zy\216}bj\335?H$\022\211D\"\341?I\260\253\360\345\206\330?\377\377\377\377\377\377\324?\346:Fq\256c\324?\000\000\000\000\000\000\360?\000\000\000\000\000\000\000\000\357\370\303\001\217?\254?\302$f\3278}\275?\013\233\003\211V\330\234?\301x+\373\034R\243?\264\007s\036\227\276\335?\371|>\237\317\347\343?I\260\253\360\345\206\270?\001\000\000\000\000\000\330?\2448\3271\212s\335?\220\234\346k\365\354\320?\024\256G\341z\024\336?\361\370\303\001\217?\274?y\212\244\031\334\313\265?\013\233\003\211V\330\274?\261.=\346\357\265\301?\371%\243\236\312\335\342?O&\223\311d2\331?J\260\253\360\345\206\310?\002\000\000\000\000\000\327?\2448\3271\212s\335?4(\025&\336\217\334?\366(\\\217\302\365\330?\355\332D\311\256M\304?\003\375\320A\nX\276?\347@\242\0256\007\322?UUUUUU\325?u\237\230Z\367\276\344?\361\367\373\375~\277\337?W\341\313\r1 \315?\000\000\000\000\000\000\336?\237ZX\351\251\205\305?\320\016\201\033\313\240\344?\000\000\000\000\000\000\000\000\323y\213!\235\267\250?\024\345XP\\\030\261?\013\233\003\211V\330\274?\261.=\346\357\265\261?\250\364\206q\202\235\325?\312d2\231L&\343?E\365\240\221w\376\306?\001\000\000\000\000\000\330?\215\342\\\307(\316\345?4(\025&\336\217\314?)\\\217\302\365(\344?\322y\213!\235\267\270?\003/\276\365\247\341\300?\347@\242\0256\007\262?\301x+\373\034R\263?\376\342\004;+E\350?L\245R\251T*\325?I\260\253\360\345\206\270?\000\000\000\000\000\000\304?5\371\262A\223/\333?G\027]t\321E\307?\256G\341z\024\256\327?D:o1\244\363\266?\377\233%\230\304\354\272?\013\233\003\211V\330\254?\341\014\010%w\212\246?\323v$\007\245\241\342?\016\006\203\301`0\330?\303\227\033b@:\306?\370\377\377\377\377\377\273?[X\351\251\205\225\316?\363\265zv\010\334\330?\244p=\n\327\243\320?&\2736Q\262k\263?\242\2700\"\320\017\275?\013\233\003\211V\330\314?E\013g@(\271\343?\341\220N\027\362\034\333?\312f\263\331l6\333?X\341\313\r1 \275?\002\000\000\000\000\000\314?\370C\002o?$\340?\304\373\221\323|\255\316?\341z\024\256G\341\332?a\271\247\021\226{\272?`y\274\221\315y\325?\347@\242\0256\007\262?\002\241\344N\321\302\251?5\013\022P\263\353\345?\252\325j\265Z\255\326?\303\227\033b@:\306?\000\000\000\000\000\000\304?\035\2438\3271\212\343?\330\352\331!pc\251?R\270\036\205\353Q\340?)\331\265\211\222]\313?\326m\231\217\320\250\303?H\264\302\346@\242\245?\022\353\322c\376^\273?\313i\017\177\376c\346?\312f\263\331l6\333?I\260\253\360\345\206\330?\376\377\377\377\377\377\317?\020\t\274\375\220\300\333?\241T\230x?r\312?\244p=\n\327\243\340?&\2736Q\262k\263?\323\014\356\345\212=\300?\227z2~\273\324\303?5\301x+\373\034\322?.\274\223\037\314y\334?\356v\273\335n\267\333?\271!\006\244c)\303?\377\377\377\377\377\377\331?\013+=\265\260\322\323?\000\000\000\000\000\000\360?\000\000\000\000\000\000\000\000\016x\374\341\200\307\257?\341\220\233\214\241\352\275?\013\233\003\211V\330\234?\301x+\373\034R\243?\264\007s\036\227\276\335?\013\205B\241P(\344?D\365\240\221w\376\266?\001\000\000\000\000\000\330?\035\2438\3271\212\343?\353\331!pc\031\304?R\270\036\205\353Q\340?D:o1\244\363\266?\201L\373lg\242\274?\371\355RO\306o\307?\261.=\346\357\265\301?\037\325!6\360\031\343?F\247\323\351t:\315?F\365\240\221w\376\326?\004\000\000\000\000\000\312?\300\333\017\t\274\375\320?\304\373\221\323|\255\316?\270\036\205\353Q\270\316?\016x\374\341\200\307\257?\242\2700\"\320\017\275?H\264\302\346@\242\245?\241\344N\321\302\031\240?\032Kx\300\000\316\334?\312f\263\331l6\333?;\177\213\323\232\355\303?\000\000\000\000\000\000\304?\353\030\305\271\216Q\314?r\232\257\325\263C\340?{\024\256G\341z\304?\226{\032a\271\247\261?\226\225.%\377\315\302?\251\'\343\267K=\311?\236\242\2053 \224\334?\340\304m|-\257\336?\255V\253\325j\265\332?\310R&\301\256\302\307?\004\000\000\000\000\000\300?\304JO-\254\364\324?\353\331!pc\031\304?\366(\\\217\302\365\330?a\271\247\021\226{\272?`\340\305\267\3764\274?\013\233\003\211V\330\314?*Z8\003B\311\315?\034hs\205\325\210\324?/\227\313\345r\271\334?3\tv\025\276\334\320?\000\000\000\000\000\000\344?\2448\3271\212s\315?\"pc\031\224\n\323?\354Q\270\036\205\353\261?\354\332D\311\256M\324?\343\302\210@?t\300?6\007\022\255\2609\300?\301x+\373\034R\263?s@4\355\341\317\337?\361\367\373\375~\277\337?\322\310;\177\213\323\312?\376\377\377\377\377\377\332?\323S\013+=\265\340?\221\234\346k\365\354\300?R\270\036\205\353Q\340?\357\370\303\001\217?\254?\242\2700\"\320\017\275?6\007\022\255\2609\300?\"5\301x+\373\274?\037\325!6\360\031\343?\315\345r\271\\.\327?A:\2262\tv\325?\002\000\000\000\000\000\302?Vzja\245\247\266?4(\025&\336\217\334?\000\000\000\000\000\000\000\000D:o1\244\363\266?\302VS\213\326\006\300?\013\233\003\211V\330\234?\241\344N\321\302\031\240?\375\222QO\345n\321?\035\016\207\303\341p\350?E\365\240\221w\376\306?\001\000\000\000\000\200\345?\024x\373!\201\267\317?\375\221\323|\255\236\335?{\024\256G\341z\304?\016x\374\341\200\307\257?`\340\305\267\3764\274?\227z2~\273\324\303?\n\306[\331\347\220\312?`i\250@4\355\341?\312d2\231L&\343?\324\203F\336\371[\314?\002\000\000\000\000\000\314?\300\333\017\t\274\375\320?\253g\207\300\215e\320?\232\231\231\231\231\231\331?\017x\374\341\200\307\277?\341\220\233\214\241\352\275?\347@\242\0256\007\262?\241\344N\321\302\031\240?\356x\'?\230\363\330?i4\032\215F\243\341?\261\253\360\345\206\030\300?\377\377\377\377\377\177\342?\323S\013+=\265\340?\330\352\331!pc\271?\024\256G\341z\024\336?\265\372RA\253/\265?\333\316D9\026\024\267?\347@\242\0256\007\262?\"5\301x+\373\274?\206\030\'\330Y)\342?(\225J\245R\251\324?\002\351X\312$\330\325?\000\000\000\000\000\000\331?\346:Fq\256c\324?F\027]t\321E\347?\n\327\243p=\n\267?\322y\213!\235\267\270?\272b\017\204\255\246\266?H\264\302\346@\242\265?\372{m\304\272\364\310?\2400\347q\351\333\337?L\247\323\351t:\335?3\tv\025\276\334\300?\000\000\000\000\000\000\264?\237ZX\351\251\205\325?\030]t\321E\027\335?R\270\036\205\353Q\310?D:o1\244\363\266?$\233\363\252\020O\301?\347@\242\0256\007\302?\226}\016\251\t\306\333?&|\306p\264 \341?\315\345r\271\\.\327?;\177\213\323\232\355\303?\370\377\377\377\377\377\273?5\371\262A\223/\313?\253g\207\300\215e\320?{\024\256G\341z\224?\226{\032a\271\247\261?\242\2700\"\320\017\275?\251\'\343\267K=\311?\261.=\346\357\265\301?h`\000g>\312\326?\261\327\353\365z\275\336?8\304\200t,e\322?\377\377\377\377\377\377\324?\305\271\216Q\234\353\330?Y\006\245\302\304\373\341?\270\036\205\353Q\270\276?a\271\247\021\226{\272?\003\375\320A\nX\276?\251\'\343\267K=\271?\261.=\346\357\265\301?\357S\271[,z\343?p\267\333\355v\273\335?J\260\253\360\345\206\310?\001\000\000\000\000\000\323?\353\030\305\271\216Q\314?\036\0027\226A\251\340?{\024\256G\341z\204?D:o1\244\363\266?\367\331\316D9\026\264?\347@\242\0256\007\302?\301x+\373\034R\263?bR\204\240\315\025\306?\031\014\006\203\301`\340?A:\2262\tv\245?\001\000\000\000\000\200\345?U\013+=\265\260\322?\375\221\323|\255\236\315?\217\302\365(\\\217\322?\016x\374\341\200\307\257?3\037\241Q\'\374\316?\000\000\000\000\000\000\000\0002\177\257\215X\227\316?}\254\255\342\235\374\340?\013\207\303\341p8\334?\205F\336\371[\234\326?\000\000\000\000\000\000\304?\235\353\030\305\271\216\341?u\321E\027]t\321?\037\205\353Q\270\036\325?\361\370\303\001\217?\274?\206\337\223\312J\227\302?\016$Zas \321?\002\241\344N\321\302\311?<\345n\261\350\r\343?O&\223\311d2\331?W\341\313\r1 \315?\002\000\000\000\000\000\327?\304JO-\254\364\324?\221\234\346k\365\354\300?\270\036\205\353Q\270\336?\265\372RA\253/\265?$\233\363\252\020O\301?\347@\242\0256\007\262?\301x+\373\034R\243?\343\255I\334\306\327\322?\212F\243\321h4\332?\303\227\033b@:\306?\000\000\000\000\000\200\343?[X\351\251\205\225\316?\030]t\321E\027\335?{\024\256G\341z\224?D:o1\244\363\266?\237W\205x\212\244\271?Zas \321\n\333?-\234\001\241\344N\341?\016\264\271\302jD\332?L\247\323\351t:\335?\322\310;\177\213\323\312?\004\253\252\252\252\252\331?U\013+=\265\260\322?~\255\236\035\0027\326?\303\365(\\\217\302\325?\361\370\303\001\217?\274?\037\010[M-Z\273?\251\'\343\267K=\271?\261.=\346\357\265\261?\2114\273^dm\305?\315\345r\271\\.\327?\331>Q=h\344\315?\377\377\377\377\377\377\346?[X\351\251\205\225\316?\201\033\313\240T\230\330?\n\327\243p=\n\307?a\271\247\021\226{\272?`\340\305\267\3764\274?\251\'\343\267K=\311?\331\347\220\232`\274\325?\200(\r\025\210\246\335?/\227\313\345r\271\334?\261\253\360\345\206\030\300?\004\000\000\000\000\000\312?\352\251\205\225\236Z\330?eP*L\274\037\331?=\n\327\243p=\332?GX\356i\204\345\336?cAqaD\240\277?\202D+l\016$\332?\217\371{m\304\272\344?\030\310\014\256I\334\346?\255V\253\325j\265\332?6\304\200t,e\302?\004\000\000\000\000\000\300?\235\353\030\305\271\216\321?*L\274\0379\315\327?\341z\024\256G\341\312?\264\372RA\253/\245?=\023\345XP\\\270?H\264\302\346@\242\245?\301x+\373\034R\223?\365\205<\307>1\325?L\245R\251T*\325?\261\253\360\345\206\030\300?\004\000\000\000\000\000\312?\305\271\216Q\234\353\310?G\027]t\321E\327?\270\036\205\353Q\270\236?\357\370\303\001\217?\254?$i\006\367r\305\276?\273\324\223\361\333\245\316?\3511\177\257\215X\307?z\201h\332\303\237\337?i4\032\215F\243\341?E\365\240\221w\376\306?\000\000\000\000\000\000\316?\300\333\017\t\274\375\320?\375\221\323|\255\236\335?{\024\256G\341z\224?\361\370\303\001\217?\234?\237W\205x\212\244\271?\013\233\003\211V\330\274?\341\014\010%w\212\266?\223fpM\3426\336?i\265Z\255V\253\325?\2272\tv\025\276\334?\370\377\377\377\377\377\273?\017\232|\331\240\311\327?\241T\230x?r\312?\270\036\205\353Q\270\336?\265\372RA\253/\265?es^\025\342)\302?\016$Zas \341?\330F\254K\217\371\353?\023\013\253\021\351t\341?\215\307\343\361x<\316?\320\310;\177\213\323\332?\004\000\000\000\000\000\300?\013+=\265\260\322\323?u\321E\027]t\341?q=\n\327\243p\315?\2008\340\361\207\003\276?\367\331\316D9\026\264?\013\233\003\211V\330\254?\"5\301x+\373\254?\n\2371\034-H\340?\361\367\373\375~\277\337?\266f\373D\365\240\301?\002\000\000\000\000\000\334?x\373!\201\267\037\322?\330\352\331!pc\331?\244p=\n\327\243\320?&\2736Q\262k\263?\242\2700\"\320\017\275?Zas \321\n\333?<E\013g@(\351?\341*\336\311\017\346\334?\353\365z\275^\257\327?X\341\313\r1 \275?\002\000\000\000\000\000\314?[X\351\251\205\225\336?\216eP*L\274\317?\000\000\000\000\000\000\340?|\032a\271\247\021\306?\007\220i\237\355L\304?H\264\302\346@\242\265?\362V\3669\244&\270?\254\307\245o\177e\342?\212F\243\321h4\332?F\365\240\221w\376\326?\001\000\000\000\000\200\340?\2448\3271\212s\315?\241T\230x?r\332?{\024\256G\341z\204?\322y\213!\235\267\270?\272b\017\204\255\246\266?\251\'\343\267K=\271?\241\344N\321\302\031\320?\355\364T\356\026\213\316?L\247\323\351t:\335?S&\301\256\302\227\273?\001\000\000\000\000\200\340?\346:Fq\256c\324?\220\234\346k\365\354\320?\270\036\205\353Q\270\316?\322y\213!\235\267\270?y\212\244\031\334\313\265?6\007\022\255\2609\300?\261.=\346\357\265\301?.\274\223\037\314y\334?l6\233\315f\263\331?]\234\326l\237\250\276?\376\377\377\377\377\377\320?[X\351\251\205\225\336?\375\221\323|\255\236\275?H\341z\024\256G\341?\226{\032a\271\247\261?\003\375\320A\nX\276?SO\306o\227z\342?\022\353\322c\376^\333?\t\367W&\n\335\324?\010\006\203\301`0\310?E\365\240\221w\376\306?\001\000\000\000\000\200\340?5\371\262A\223/\273?\375\221\323|\255\236\335?{\024\256G\341z\224?\016x\374\341\200\307\257?\302VS\213\326\006\300?\347@\242\0256\007\322?\261.=\346\357\265\341?\217\250\247r\267X\324?\013\205B\241P(\344?X\341\313\r1 \275?\000\000\000\000\000\000\316?\240\311\227\r\232|\331?Y\006\245\302\304\373\301?\037\205\353Q\270\036\325?\354\332D\311\256M\264?y\212\244\031\334\313\265?H\264\302\346@\242\305?\251\t\306[\331\347\300?\216\334\306\327\362\352\327?\212F\243\321h4\332?{\320\310;\177\213\323?\376\377\377\377\377\377\337?{ja\245\247\026\326?\375\221\323|\255\236\315?\232\231\231\231\231\231\331?\nZ}\251\240\325\327?\323\014\356\345\212=\260?\013\233\003\211V\330\234?\002\241\344N\321\302\231?\016\264\271\302jD\332?\312f\263\331l6\333?\266f\373D\365\240\301?\000\000\000\000\000\200\341?\2448\3271\212s\315?\241T\230x?r\332?\270\036\205\353Q\270\256?\017x\374\341\200\307\277?@t\220\002\226\307\273?\251\'\343\267K=\311?\2766b]z\314\337?L+E\010\332\\\341?\331l6\233\315f\343?\261\253\360\345\206\030\300?\000\000\000\000\000\000\304?~\331\240\311\227\r\312?\206\211\367#\247\371\332?\037\205\353Q\270\036\325?\231\231\231\231\231\231\331?\022Lbv\215\323\327?w\251\'\343\267K\355?\033\261.=\346\357\345?\374_\231(tS\342?\016\006\203\301`0\330?\266f\373D\365\240\301?\000\000\000\000\000\000\304?\300\333\017\t\274\375\300?\264C\340\3062(\305?\000\000\000\000\000\000\320?\016x\374\341\200\307\257?cAqaD\240\277?\013\233\003\211V\330\254?\321\302\031\020J\356\304?\265$n\343ky\325?\316\347\363\371|>\337?2\tv\025\276\334\260?\376\377\377\377\377\377\317?\2448\3271\212s\335?u\321E\027]t\321?R\270\036\205\353Q\330?\361\370\303\001\217?\274?\302$f\3278}\275?\343\267K=\031\277\335?\362V\3669\244&\330?\000\315G\331\216\344\340?(\225J\245R\251\324?\271!\006\244c)\303?\004\000\000\000\000\000\312?\024x\373!\201\267\257?=;\004n,\203\322?)\\\217\302\365(\274?D:o1\244\363\266?$i\006\367r\305\256?Zas \321\n\313?g@(\271S\264\340?\311\346\243lGr\300?\013\205B\241P(\344?\200\213\323\232\355\023\325?\377\377\377\377\377\177\351?U\013+=\265\260\322?$\247\371Z=;\344?\270\036\205\353Q\270\236?\016x\374\341\200\307\257?\326m\231\217\320\250\263?H\264\302\346@\242\245?\002\241\344N\321\302\211?V\375.Kx\300\340?\316\347\363\371|>\337?\000\000\000\000\000\000\000\000\374\377\377\377\377\377\267?\021x\373!\201\267\337?\375\221\323|\255\236\315?\232\231\231\231\231\231\331?\361\370\303\001\217?\274?\034\247\257\243\347\356\267?\347@\242\0256\007\342?\301x+\373\034R\323?\220\352\020\033\370\214\341?\007\004\002\201@ \340?\375-Nk\266O\324?\000\000\000\000\000\000\324?\2448\3271\212s\315?Ra\342\375\310i\336?\244p=\n\327\243\300?&\2736Q\262k\263?\037\010[M-Z\273?\227z2~\273\324\303?\341\014\010%w\212\266?t\367\276d\324S\331?\356v\273\335n\267\333?\261\253\360\345\206\030\300?\376\377\377\377\377\377\317?\346:Fq\256c\324?\353\331!pc\031\324?ffffff\326?\226{\032a\271\247\301?@t\220\002\226\307\273?\347@\242\0256\007\322?4 \224\334)Z\350?9\272)\251\016\261\341?+\026\213\305b\261\330?\303\227\033b@:\306?\002\000\000\000\000\000\302?\2448\3271\212s\315?\264C\340\3062(\325?\354Q\270\036\205\353\261?\225{\032a\271\247\241?\340/\360\342[\177\272?\013\233\003\211V\330\254?\341\014\010%w\212\266?}\254\255\342\235\374\340?L\247\323\351t:\335?8\304\200t,e\322?\376\377\377\377\377\377\305?Vzja\245\247\306?\000\000\000\000\000\000\340?\n\327\243p=\n\267?\354\332D\311\256M\324?\252\254t)\371o\306?\013\233\003\211V\330\274?\261.=\346\357\265\261?\272\025\357\344\007s\336?\261\327\353\365z\275\336?I\260\253\360\345\206\270?\002\000\000\000\000\000\327?[X\351\251\205\225\316?\006\245\302\304\373\221\323?\232\231\231\231\231\231\271?\2008\340\361\207\003\276?\034\247\257\243\347\356\267?H\264\302\346@\242\245?\002\241\344N\321\302\251?\201\364\355\257L\024\332?\013\207\303\341p8\334??:\2262\tv\265?\000\000\000\000\000\000\324?1\212s\035\2438\327?\353\331!pc\031\304?q=\n\327\243p\335?\225{\032a\271\247\241?\367\331\316D9\026\264?\347@\242\0256\007\302?2\177\257\215X\227\276?\340\304m|-\257\336?\316\347\363\371|>\337?rZ\263}\242z\320?\376\377\377\377\377\377\317?0\0334\371\262A\323?\2510\361~\3444\337?\000\000\000\000\000\000\000\000\2008\340\361\207\003\276?\242\2700\"\320\017\275?\347@\242\0256\007\302?\341\014\010%w\212\306?9\272)\251\016\261\341?i4\032\215F\243\341?]\234\326l\237\250\276?\000\000\000\000\000\000\304?\013+=\265\260\322\323?9\315\327\352\331!\340?\000\000\000\000\000\000\000\000\361\370\303\001\217?\274?\302$f\3278}\275?\227z2~\273\324\303?\"5\301x+\373\274?\357\206q\202\235\225\342?\007\004\002\201@ \340?<\177\213\323\232\355\263?\376\377\377\377\377\377\305?\216Q\234\353\030\305\351?\2510\361~\3444\317?\303\365(\\\217\302\345?\226{\032a\271\247\301?E\325;\254\3332\277?\013\233\003\211V\330\314?*Z8\003B\311\315?\021\273\367%\243\236\352?\007\004\002\201@ \320?w\025\276\334\020\003\322?\000\000\000\000\000\000\316?0\0334\371\262A\323?\030]t\321E\027\335?333333\323?&\2736Q\262k\263?\027F\004\372\241\203\264?\242\0256\007\022\255\340?\341\014\010%w\212\326?\347\321\202\004\324\354\332?\212F\243\321h4\332?\266f\373D\365\240\301?\376\377\377\377\377\377\320?\235\353\030\305\271\216\321?\266zv\010\334X\346?\232\231\231\231\231\231\271?\265\372RA\253/\265?Y\036ods^\305?\347@\242\0256\007\302?\002\241\344N\321\302\271?g\251u\357KF\335?\212F\243\321h4\332?Nk\266OT\017\272?\000\000\000\000\000\000\304?\370C\002o?$\340?\231x?r\232\257\325?\270\036\205\353Q\270\336?\361\370\303\001\217?\274?y\212\244\031\334\313\265?\347@\242\0256\007\262?2\177\257\215X\227\276?\030\310\014\256I\334\346?\312d2\231L&\323?;\177\213\323\232\355\303?\004\000\000\000\000\000\300?\2448\3271\212s\315?\206\211\367#\247\371\332?\000\000\000\000\000\000\000\000\226{\032a\271\247\261?es^\025\342)\302?\371\355RO\306o\307?\002\241\344N\321\302\311?S\322\351B\236c\337?\361\367\373\375~\277\337?\271!\006\244c)\303?\000\000\000\000\000\000\264?\017\232|\331\240\311\327?\304\373\221\323|\255\316?{\024\256G\341z\344?D:o1\244\363\266?$\233\363\252\020O\301?\013\233\003\211V\330\274?\"5\301x+\373\314?\002\222\034\224\206\n\344?\013\205B\241P(\344?\315\r1 \035K\311?\000\000\000\000\000\000\324?Vzja\245\247\246?\201\033\313\240T\230\330?\000\000\000\000\000\000\000\000\357\370\303\001\217?\254?\037\010[M-Z\253?\371\355RO\306o\307?\241\344N\321\302\031\340?\"\213Eo\030\'\310?+\225J\245R\251\344?\005\244c)\223`\327?\000\000\000\000\000\000\346?\235\353\030\305\271\216\321?}\255\236\035\0027\346?\232\231\231\231\231\231\311?&\2736Q\262k\263?\343\220\233\214\241\352\255?\251\'\343\267K=\311?\331\347\220\232`\274\325?\001\267\212w\362\203\331?\316\347\363\371|>\337?2\tv\025\276\334\260?\001\000\000\000\000\000\330?\236ZX\351\251\205\345?G\027]t\321E\307?\000\000\000\000\000\000\340?a\271\247\021\226{\272?\333\316D9\026\024\267?6\007\022\255\2609\300?\362V\3669\244&\270?e&\n\335\224T\347?\312d2\231L&\323?\020\003\322\261\224I\340?\370\377\377\377\377\377\273?Vzja\245\247\326?\264C\340\3062(\265?\n\327\243p=\n\327?\226{\032a\271\247\261?\232\366\331\316D9\266?\371\355RO\306o\347?\236\242\2053 \224\334?\rNIu\210\r\334?\233L&\223\311d\342?\277\334\020\003\322\261\324?\000\000\000\000\000\000\331?\020\t\274\375\220\300\333?b\342\375\310i\276\326?\037\205\353Q\270\036\345?\322y\213!\235\267\270?s,